{
  "version": "1.0",
  "truncation": {
    "direction": "Right",
    "max_length": 128,
    "strategy": "LongestFirst",
    "stride": 0
  },
  "padding": {
    "strategy": "BatchLongest",
    "direction": "Right",
    "pad_to_multiple_of": null,
    "pad_id": 0,
    "pad_type_id": 0,
    "pad_token": "[PAD]"
  },
  "added_tokens": [
    {
      "id": 0,
      "content": "[PAD]",
      "single_word": false,
      "lstrip": false,
      "rstrip": false,
      "normalized": false,
      "special": true
    },
    {
      "id": 1,
      "content": "[UNK]",
      "single_word": false,
      "lstrip": false,
      "rstrip": false,
      "normalized": false,
      "special": true
    },
    {
      "id": 2,
      "content": "[CLS]",
      "single_word": false,
      "lstrip": false,
      "rstrip": false,
      "normalized": false,
      "special": true
    },
    {
      "id": 3,
      "content": "[SEP]",
      "single_word": false,
      "lstrip": false,
      "rstrip": false,
      "normalized": false,
      "special": true
    },
    {
      "id": 4,
      "content": "[MASK]",
      "single_word": false,
      "lstrip": false,
      "rstrip": false,
      "normalized": false,
      "special": true
    }
  ],
  "normalizer": {
    "type": "BertNormalizer",
    "clean_text": true,
    "handle_chinese_chars": true,
    "strip_accents": null,
    "lowercase": true
  },
  "pre_tokenizer": {
    "type": "BertPreTokenizer"
  },
  "post_processor": {
    "type": "TemplateProcessing",
    "single": [
      {
        "SpecialToken": {
          "id": "[CLS]",
          "type_id": 0
        }
      },
      {
        "Sequence": {
          "id": "A",
          "type_id": 0
        }
      },
      {
        "SpecialToken": {
          "id": "[SEP]",
          "type_id": 0
        }
      }
    ],
    "pair": [
      {
        "SpecialToken": {
          "id": "[CLS]",
          "type_id": 0
        }
      },
      {
        "Sequence": {
          "id": "A",
          "type_id": 0
        }
      },
      {
        "SpecialToken": {
          "id": "[SEP]",
          "type_id": 0
        }
      },
      {
        "Sequence": {
          "id": "B",
          "type_id": 1
        }
      },
      {
        "SpecialToken": {
          "id": "[SEP]",
          "type_id": 1
        }
      }
    ],
    "special_tokens": {
      "[CLS]": {
        "id": "[CLS]",
        "ids": [
          2
        ],
        "tokens": [
          "[CLS]"
        ]
      },
      "[SEP]": {
        "id": "[SEP]",
        "ids": [
          3
        ],
        "tokens": [
          "[SEP]"
        ]
      }
    }
  },
  "decoder": {
    "type": "WordPiece",
    "prefix": "##",
    "cleanup": true
  },
  "model": {
    "type": "WordPiece",
    "unk_token": "[UNK]",
    "continuing_subword_prefix": "##",
    "max_input_chars_per_word": 100,
    "vocab": {
      "[PAD]": 0,
      "[UNK]": 1,
      "[CLS]": 2,
      "[SEP]": 3,
      "[MASK]": 4,
      "!": 5,
      "\"": 6,
      "$": 7,
      "%": 8,
      "'": 9,
      "(": 10,
      ")": 11,
      ",": 12,
      "-": 13,
      ".": 14,
      "/": 15,
      "0": 16,
      "1": 17,
      "2": 18,
      "3": 19,
      "4": 20,
      "5": 21,
      "6": 22,
      "7": 23,
      "8": 24,
      "9": 25,
      ":": 26,
      ";": 27,
      "?": 28,
      "[": 29,
      "]": 30,
      "a": 31,
      "b": 32,
      "c": 33,
      "d": 34,
      "e": 35,
      "f": 36,
      "g": 37,
      "h": 38,
      "i": 39,
      "j": 40,
      "k": 41,
      "l": 42,
      "m": 43,
      "n": 44,
      "o": 45,
      "p": 46,
      "q": 47,
      "r": 48,
      "s": 49,
      "t": 50,
      "u": 51,
      "v": 52,
      "w": 53,
      "x": 54,
      "y": 55,
      "z": 56,
      "{": 57,
      "}": 58,
      "–": 59,
      "—": 60,
      "##a": 61,
      "##c": 62,
      "##n": 63,
      "##i": 64,
      "##h": 65,
      "##u": 66,
      "##s": 67,
      "##y": 68,
      "##6": 69,
      "##1": 70,
      "##0": 71,
      "##3": 72,
      "##8": 73,
      "##m": 74,
      "##g": 75,
      "##d": 76,
      "##e": 77,
      "##r": 78,
      "##o": 79,
      "##w": 80,
      "##k": 81,
      "##7": 82,
      "##b": 83,
      "##f": 84,
      "##t": 85,
      "##l": 86,
      "##v": 87,
      "##q": 88,
      "##j": 89,
      "##p": 90,
      "##z": 91,
      "##x": 92,
      "##4": 93,
      "##2": 94,
      "##9": 95,
      "##5": 96,
      "##aa": 97,
      "##ad": 98,
      "##ay": 99,
      "##an": 100,
      "##oo": 101,
      "##ii": 102,
      "##ar": 103,
      "##ee": 104,
      "##ka": 105,
      "##al": 106,
      "##ha": 107,
      "##ax": 108,
      "##aan": 109,
      "ay": 110,
      "##da": 111,
      "##ada": 112,
      "ka": 113,
      "oo": 114,
      "ku": 115,
      "##iy": 116,
      "##in": 117,
      "la": 118,
      "in": 119,
      "##ga": 120,
      "##uu": 121,
      "##ey": 122,
      "##aal": 123,
      "wax": 124,
      "ah": 125,
      "##ta": 126,
      "##yo": 127,
      "##ab": 128,
      "##ir": 129,
      "ee": 130,
      "##id": 131,
      "iyo": 132,
      "dh": 133,
      "##aar": 134,
      "##sh": 135,
      "##aad": 136,
      "##gu": 137,
      "soo": 138,
      "##aas": 139,
      "##il": 140,
      "##aha": 141,
      "ayaa": 142,
      "sh": 143,
      "##am": 144,
      "##or": 145,
      "ma": 146,
      "##een": 147,
      "is": 148,
      "uu": 149,
      "##is": 150,
      "dha": 151,
      "##ah": 152,
      "##as": 153,
      "##kii": 154,
      "mar": 155,
      "##adda": 156,
      "##aab": 157,
      "##iga": 158,
      "kal": 159,
      "##ur": 160,
      "si": 161,
      "##san": 162,
      "##eyn": 163,
      "##oon": 164,
      "##im": 165,
      "##eeg": 166,
      "##ul": 167,
      "##el": 168,
      "##ib": 169,
      "##ag": 170,
      "##ud": 171,
      "##aam": 172,
      "##eed": 173,
      "##iin": 174,
      "##ol": 175,
      "##ig": 176,
      "##ow": 177,
      "##er": 178,
      "##ac": 179,
      "##tay": 180,
      "##eer": 181,
      "loo": 182,
      "##eey": 183,
      "##iis": 184,
      "##ed": 185,
      "##na": 186,
      "waa": 187,
      "##ahay": 188,
      "##adan": 189,
      "so": 190,
      "##to": 191,
      "aan": 192,
      "hor": 193,
      "##maal": 194,
      "lagu": 195,
      "sha": 196,
      "##iya": 197,
      "##alka": 198,
      "mid": 199,
      "##un": 200,
      "ugu": 201,
      "waxaa": 202,
      "war": 203,
      "had": 204,
      "mad": 205,
      "sheeg": 206,
      "##us": 207,
      "##ays": 208,
      "##ayn": 209,
      "##and": 210,
      "ar": 211,
      "soomaal": 212,
      "jir": 213,
      "##ub": 214,
      "kale": 215,
      "##aw": 216,
      "##eys": 217,
      "##iir": 218,
      "##ob": 219,
      "##ood": 220,
      "##aah": 221,
      "##ku": 222,
      "am": 223,
      "##anka": 224,
      "madax": 225,
      "waxa": 226,
      "##ash": 227,
      "waxaan": 228,
      "aad": 229,
      "doon": 230,
      "waxay": 231,
      "##on": 232,
      "dad": 233,
      "##en": 234,
      "##ba": 235,
      "##ih": 236,
      "mu": 237,
      "##inta": 238,
      "badan": 239,
      "kar": 240,
      "##ooy": 241,
      "sid": 242,
      "##aya": 243,
      "##ti": 244,
      "##uur": 245,
      "de": 246,
      "##di": 247,
      "##aanka": 248,
      "was": 249,
      "##eel": 250,
      "##weyn": 251,
      "##um": 252,
      "mag": 253,
      "##aq": 254,
      "##oob": 255,
      "laga": 256,
      "##owl": 257,
      "max": 258,
      "sheegay": 259,
      "##mal": 260,
      "##la": 261,
      "gal": 262,
      "##aalada": 263,
      "##oor": 264,
      "##mada": 265,
      "bar": 266,
      "##dh": 267,
      "qab": 268,
      "##ix": 269,
      "inay": 270,
      "##it": 271,
      "ad": 272,
      "##aag": 273,
      "##ayo": 274,
      "##af": 275,
      "soomaaliya": 276,
      "gob": 277,
      "##add": 278,
      "al": 279,
      "##aaf": 280,
      "cii": 281,
      "somal": 282,
      "##day": 283,
      "gud": 284,
      "gaar": 285,
      "##kh": 286,
      "iy": 287,
      "##ool": 288,
      "dar": 289,
      "##ux": 290,
      "dalka": 291,
      "##aasi": 292,
      "##ex": 293,
      "il": 294,
      "##og": 295,
      "sida": 296,
      "dowl": 297,
      "20": 298,
      "##ooyin": 299,
      "qo": 300,
      "kala": 301,
      "gobol": 302,
      "xil": 303,
      "##oq": 304,
      "magaalada": 305,
      "cab": 306,
      "##ug": 307,
      "##kan": 308,
      "##sha": 309,
      "shaq": 310,
      "madaxweyn": 311,
      "##aac": 312,
      "le": 313,
      "deg": 314,
      "hal": 315,
      "wux": 316,
      "dib": 317,
      "qar": 318,
      "##iyo": 319,
      "##iyaar": 320,
      "kuw": 321,
      "kul": 322,
      "##sho": 323,
      "soc": 324,
      "dhac": 325,
      "sam": 326,
      "##aalka": 327,
      "##maan": 328,
      "wuxuu": 329,
      "##uul": 330,
      "##oog": 331,
      "koo": 332,
      "tahay": 333,
      "##ic": 334,
      "tal": 335,
      "##iyay": 336,
      "gar": 337,
      "af": 338,
      "qaad": 339,
      "san": 340,
      "##ooda": 341,
      "##oos": 342,
      "##hay": 343,
      "far": 344,
      "ahaa": 345,
      "##adii": 346,
      "sii": 347,
      "##at": 348,
      "##uud": 349,
      "kas": 350,
      "##ida": 351,
      "##aaw": 352,
      "##le": 353,
      "##ana": 354,
      "qor": 355,
      "##od": 356,
      "##eeda": 357,
      "##ihiin": 358,
      "##aanta": 359,
      "yahay": 360,
      "sar": 361,
      "shir": 362,
      "markii": 363,
      "leh": 364,
      "maxam": 365,
      "koox": 366,
      "ama": 367,
      "##es": 368,
      "ab": 369,
      "##arka": 370,
      "mud": 371,
      "maam": 372,
      "an": 373,
      "dal": 374,
      "noq": 375,
      "##dii": 376,
      "tir": 377,
      "lab": 378,
      "##aga": 379,
      "inuu": 380,
      "wal": 381,
      "dadka": 382,
      "ciida": 383,
      "dhex": 384,
      "dag": 385,
      "muu": 386,
      "##do": 387,
      "##taa": 388,
      "##ma": 389,
      "kh": 390,
      "##tii": 391,
      "##iisa": 392,
      "maamul": 393,
      "isku": 394,
      "##iland": 395,
      "dhaq": 396,
      "xir": 397,
      "maal": 398,
      "door": 399,
      "saar": 400,
      "##ayaa": 401,
      "##iyaha": 402,
      "uga": 403,
      "bil": 404,
      "##eeyay": 405,
      "waxaana": 406,
      "bax": 407,
      "##adaha": 408,
      "somaliland": 409,
      "hel": 410,
      "##kaan": 411,
      "lah": 412,
      "##aaq": 413,
      "wada": 414,
      "##ooyinka": 415,
      "du": 416,
      "##aay": 417,
      "bal": 418,
      "##amb": 419,
      "muq": 420,
      "wasiir": 421,
      "##unt": 422,
      "##sa": 423,
      "ahaan": 424,
      "qof": 425,
      "gobolka": 426,
      "##sad": 427,
      "muqdi": 428,
      "##om": 429,
      "hadl": 430,
      "sidoo": 431,
      "mas": 432,
      "##abka": 433,
      "hore": 434,
      "201": 435,
      "muqdisho": 436,
      "##ayaan": 437,
      "##land": 438,
      "marka": 439,
      "maanta": 440,
      "##oom": 441,
      "dhig": 442,
      "xu": 443,
      "##yada": 444,
      "##awl": 445,
      "##iinta": 446,
      "cal": 447,
      "wasaar": 448,
      "##kaas": 449,
      "dhal": 450,
      "##se": 451,
      "##idh": 452,
      "dowladda": 453,
      "##si": 454,
      "arr": 455,
      "og": 456,
      "mac": 457,
      "##ayb": 458,
      "##aasha": 459,
      "maxamed": 460,
      "yar": 461,
      "##aat": 462,
      "yihiin": 463,
      "##abab": 464,
      "shar": 465,
      "##ayd": 466,
      "##aakii": 467,
      "dhaw": 468,
      "##iyey": 469,
      "dham": 470,
      "wad": 471,
      "##ia": 472,
      "cus": 473,
      "##iim": 474,
      "xas": 475,
      "wa": 476,
      "ciyaar": 477,
      "##iid": 478,
      "##ashada": 479,
      "kor": 480,
      "xar": 481,
      "qayb": 482,
      "##no": 483,
      "madaxweynaha": 484,
      "##aadka": 485,
      "damb": 486,
      "##uun": 487,
      "##iil": 488,
      "##alay": 489,
      "dhin": 490,
      "car": 491,
      "punt": 492,
      "weyn": 493,
      "aq": 494,
      "bad": 495,
      "ciidamada": 496,
      "puntland": 497,
      "gudd": 498,
      "##eysa": 499,
      "deeg": 500,
      "##ihii": 501,
      "bix": 502,
      "taag": 503,
      "##aaj": 504,
      "baar": 505,
      "iyad": 506,
      "shab": 507,
      "##lam": 508,
      "hoos": 509,
      "as": 510,
      "loogu": 511,
      "##gac": 512,
      "qal": 513,
      "##ri": 514,
      "##uum": 515,
      "hab": 516,
      "ayuu": 517,
      "##kk": 518,
      "##abad": 519,
      "dagaal": 520,
      "siy": 521,
      "##kaa": 522,
      "##iyeed": 523,
      "qaar": 524,
      "magac": 525,
      "baah": 526,
      "##med": 527,
      "ra": 528,
      "fur": 529,
      "##iyada": 530,
      "##ish": 531,
      "he": 532,
      "haddii": 533,
      "aw": 534,
      "##ro": 535,
      "cad": 536,
      "##mo": 537,
      "##daha": 538,
      "gol": 539,
      "shee": 540,
      "##iye": 541,
      "##imaha": 542,
      "##wan": 543,
      "nin": 544,
      "##iiska": 545,
      "ax": 546,
      "inta": 547,
      "cusub": 548,
      "har": 549,
      "dab": 550,
      "meel": 551,
      "dil": 552,
      "##siga": 553,
      "##aysa": 554,
      "joog": 555,
      "##kaasi": 556,
      "shac": 557,
      "##ayay": 558,
      "gu": 559,
      "sal": 560,
      "kooxda": 561,
      "kasta": 562,
      "looga": 563,
      "iyadoo": 564,
      "xuk": 565,
      "maamulka": 566,
      "##ter": 567,
      "##agoo": 568,
      "dhis": 569,
      "ciid": 570,
      "tirsan": 571,
      "dan": 572,
      "##taan": 573,
      "th": 574,
      "##eyb": 575,
      "cabd": 576,
      "dheer": 577,
      "bul": 578,
      "##ilm": 579,
      "ban": 580,
      "##kiisa": 581,
      "##soo": 582,
      "##gal": 583,
      "kad": 584,
      "kuwa": 585,
      "xis": 586,
      "##tic": 587,
      "ha": 588,
      "isla": 589,
      "##umar": 590,
      "go": 591,
      "##aash": 592,
      "sax": 593,
      "##eeyo": 594,
      "dhib": 595,
      "##eenka": 596,
      "##naa": 597,
      "weer": 598,
      "hog": 599,
      "##aada": 600,
      "qeyb": 601,
      "diyaar": 602,
      "dawl": 603,
      "dhow": 604,
      "duwan": 605,
      "##shada": 606,
      "cali": 607,
      "##ec": 608,
      "##aakiin": 609,
      "taas": 610,
      "##iib": 611,
      "siyaas": 612,
      "cod": 613,
      "##iic": 614,
      "dhacay": 615,
      "##nim": 616,
      "dhinac": 617,
      "##shay": 618,
      "##uuq": 619,
      "id": 620,
      "gur": 621,
      "jira": 622,
      "laakiin": 623,
      "hay": 624,
      "noo": 625,
      "sare": 626,
      "kadib": 627,
      "##ya": 628,
      "sabab": 629,
      "gan": 630,
      "##eeya": 631,
      "##adu": 632,
      "sug": 633,
      "leey": 634,
      "guul": 635,
      "##adka": 636,
      "##tan": 637,
      "cabdi": 638,
      "##aax": 639,
      "soomaaliyeed": 640,
      "kulan": 641,
      "qaab": 642,
      "gac": 643,
      "wan": 644,
      "ur": 645,
      "shabaab": 646,
      "muuq": 647,
      "dhan": 648,
      "axmed": 649,
      "madaxweyne": 650,
      "iska": 651,
      "##em": 652,
      "goob": 653,
      "##eb": 654,
      "guud": 655,
      "##dhib": 656,
      "##ane": 657,
      "mus": 658,
      "waan": 659,
      "im": 660,
      "xildhib": 661,
      "##iri": 662,
      "##eedka": 663,
      "xaq": 664,
      "##iyaan": 665,
      "reer": 666,
      "tar": 667,
      "##bar": 668,
      "fed": 669,
      "gaad": 670,
      "##et": 671,
      "buu": 672,
      "haw": 673,
      "gab": 674,
      "lahaa": 675,
      "warb": 676,
      "##aayo": 677,
      "##aabo": 678,
      "##ing": 679,
      "da": 680,
      "tan": 681,
      "ilaa": 682,
      "hadda": 683,
      "##eeyey": 684,
      "golaha": 685,
      "wasiirka": 686,
      "feder": 687,
      "xasan": 688,
      "hadlay": 689,
      "xus": 690,
      "##ayso": 691,
      "##00": 692,
      "keen": 693,
      "weerar": 694,
      "adeeg": 695,
      "##ik": 696,
      "xildhibaan": 697,
      "##aale": 698,
      "##eyd": 699,
      "##ij": 700,
      "##kaana": 701,
      "lac": 702,
      "xisb": 703,
      "##ahan": 704,
      "##eg": 705,
      "waq": 706,
      "tag": 707,
      "hesh": 708,
      "labada": 709,
      "##li": 710,
      "fil": 711,
      "##teen": 712,
      "##iyadda": 713,
      "doono": 714,
      "caal": 715,
      "ken": 716,
      "inaad": 717,
      "xoog": 718,
      "ganac": 719,
      "shacabka": 720,
      "##iska": 721,
      "##adh": 722,
      "degmada": 723,
      "xiriir": 724,
      "hub": 725,
      "urur": 726,
      "maq": 727,
      "istic": 728,
      "##isay": 729,
      "xig": 730,
      "karo": 731,
      "guddoom": 732,
      "##ado": 733,
      "wanaag": 734,
      "##ak": 735,
      "caalam": 736,
      "##agu": 737,
      "##uf": 738,
      "saf": 739,
      "##anta": 740,
      "##lo": 741,
      "it": 742,
      "##asho": 743,
      "##imaad": 744,
      "##st": 745,
      "xub": 746,
      "hadal": 747,
      "sidii": 748,
      "bur": 749,
      "kasoo": 750,
      "rab": 751,
      "kha": 752,
      "##adeed": 753,
      "##lada": 754,
      "baarlam": 755,
      "##kanka": 756,
      "taageer": 757,
      "##jin": 758,
      "##uus": 759,
      "##unta": 760,
      "muh": 761,
      "kam": 762,
      "jeed": 763,
      "koob": 764,
      "##ista": 765,
      "mal": 766,
      "isticmaal": 767,
      "##eesha": 768,
      "##if": 769,
      "##eeb": 770,
      "##ch": 771,
      "bulshada": 772,
      "##eesh": 773,
      "noqon": 774,
      "lacag": 775,
      "##elin": 776,
      "##eysan": 777,
      "ayaan": 778,
      "##eyso": 779,
      "yiri": 780,
      "isaga": 781,
      "mil": 782,
      "sheekh": 783,
      "##tir": 784,
      "aadan": 785,
      "##kooda": 786,
      "##lin": 787,
      "##ees": 788,
      "the": 789,
      "##eynta": 790,
      "inaan": 791,
      "harg": 792,
      "kenya": 793,
      "federaalka": 794,
      "aqoon": 795,
      "##eli": 796,
      "xaf": 797,
      "##ber": 798,
      "shirk": 799,
      "arrimaha": 800,
      "##maha": 801,
      "isu": 802,
      "##iso": 803,
      "re": 804,
      "xukuum": 805,
      "##aasim": 806,
      "dir": 807,
      "##aynta": 808,
      "caaf": 809,
      "dhul": 810,
      "19": 811,
      "sanad": 812,
      "isb": 813,
      "##yar": 814,
      "jiray": 815,
      "deegaanka": 816,
      "un": 817,
      "##re": 818,
      "##uh": 819,
      "wanaagsan": 820,
      "##th": 821,
      "##may": 822,
      "balse": 823,
      "##iix": 824,
      "sharc": 825,
      "ahayd": 826,
      "howl": 827,
      "fiic": 828,
      "on": 829,
      "##iiq": 830,
      "kaga": 831,
      "##ent": 832,
      "##uq": 833,
      "##had": 834,
      "qaaday": 835,
      "gudaha": 836,
      "ciidanka": 837,
      "##kar": 838,
      "socda": 839,
      "nool": 840,
      "##saday": 841,
      "##oonka": 842,
      "##iyeen": 843,
      "baahan": 844,
      "heer": 845,
      "laba": 846,
      "##ilmaam": 847,
      "waxaad": 848,
      "muhiim": 849,
      "baxay": 850,
      "##aalaha": 851,
      "maalin": 852,
      "##dha": 853,
      "xidh": 854,
      "daaw": 855,
      "awood": 856,
      "isagoo": 857,
      "##kood": 858,
      "nooc": 859,
      "ark": 860,
      "qur": 861,
      "han": 862,
      "##tar": 863,
      "halka": 864,
      "##mad": 865,
      "galay": 866,
      "##eysay": 867,
      "##uunka": 868,
      "##mar": 869,
      "##aabay": 870,
      "baarlamaanka": 871,
      "ada": 872,
      "##fur": 873,
      "wasaaradda": 874,
      "itoob": 875,
      "jaw": 876,
      "magaal": 877,
      "##aahi": 878,
      "yidh": 879,
      "##aado": 880,
      "cid": 881,
      "##igii": 882,
      "kula": 883,
      "xarunta": 884,
      "##aaga": 885,
      "aysan": 886,
      "arag": 887,
      "mudane": 888,
      "saab": 889,
      "maray": 890,
      "hada": 891,
      "caaw": 892,
      "leeyahay": 893,
      "dhaaw": 894,
      "na": 895,
      "dhanka": 896,
      "hoose": 897,
      "##inka": 898,
      "yeel": 899,
      "##iij": 900,
      "amn": 901,
      "er": 902,
      "jab": 903,
      "sano": 904,
      "su": 905,
      "kamid": 906,
      "int": 907,
      "markaana": 908,
      "##andh": 909,
      "nabad": 910,
      "##ew": 911,
      "waxy": 912,
      "##ot": 913,
      "fiican": 914,
      "xid": 915,
      "dhaawac": 916,
      "##ayaasha": 917,
      "kuwaas": 918,
      "saabsan": 919,
      "ayay": 920,
      "##sii": 921,
      "saw": 922,
      "kaas": 923,
      "##tu": 924,
      "##daan": 925,
      "##gan": 926,
      "xog": 927,
      "##tion": 928,
      "dhexe": 929,
      "ras": 930,
      "##io": 931,
      "deegaan": 932,
      "tilmaam": 933,
      "qarax": 934,
      "com": 935,
      "iyada": 936,
      "hawl": 937,
      "cas": 938,
      "wadd": 939,
      "##uuc": 940,
      "mur": 941,
      "nol": 942,
      "itoobiya": 943,
      "xaal": 944,
      "gudb": 945,
      "dhaaf": 946,
      "horumar": 947,
      "way": 948,
      "caasim": 949,
      "##dob": 950,
      "##iikh": 951,
      "qaranka": 952,
      "##mi": 953,
      "mash": 954,
      "jub": 955,
      "##yay": 956,
      "dii": 957,
      "##atay": 958,
      "joo": 959,
      "##ra": 960,
      "bool": 961,
      "add": 962,
      "of": 963,
      "doonaan": 964,
      "ilaal": 965,
      "wareeg": 966,
      "jam": 967,
      "##aatay": 968,
      "yaal": 969,
      "waxayna": 970,
      "##kkkk": 971,
      "ag": 972,
      "##oow": 973,
      "iib": 974,
      "##imid": 975,
      "cul": 976,
      "dhammaan": 977,
      "hargeysa": 978,
      "eeg": 979,
      "fal": 980,
      "man": 981,
      "saam": 982,
      "sawir": 983,
      "##ys": 984,
      "heshiis": 985,
      "boq": 986,
      "##imo": 987,
      "##bal": 988,
      "doonaa": 989,
      "wararka": 990,
      "##te": 991,
      "bed": 992,
      "doorashada": 993,
      "gudoom": 994,
      "dhax": 995,
      "##naan": 996,
      "kii": 997,
      "202": 998,
      "##ina": 999,
      "##uhu": 1000,
      "ch": 1001,
      "xan": 1002,
      "bandh": 1003,
      "qiim": 1004,
      "##nay": 1005,
      "wadan": 1006,
      "jiraan": 1007,
      "somalia": 1008,
      "afri": 1009,
      "kartaa": 1010,
      "##uub": 1011,
      "iis": 1012,
      "##aayeen": 1013,
      "jaam": 1014,
      "##madda": 1015,
      "xisbiga": 1016,
      "##os": 1017,
      "koon": 1018,
      "adag": 1019,
      "10": 1020,
      "##nu": 1021,
      "abuur": 1022,
      "sheegtay": 1023,
      "##aysaa": 1024,
      "muddo": 1025,
      "maxamuud": 1026,
      "dhinaca": 1027,
      "marey": 1028,
      "##aysan": 1029,
      "##ast": 1030,
      "tur": 1031,
      "doorash": 1032,
      "aam": 1033,
      "tabab": 1034,
      "##jir": 1035,
      "xal": 1036,
      "##ixii": 1037,
      "##aamka": 1038,
      "bandhig": 1039,
      "##aadir": 1040,
      "##ver": 1041,
      "##so": 1042,
      "##aysay": 1043,
      "jaamac": 1044,
      "##aqaan": 1045,
      "waxbar": 1046,
      "danb": 1047,
      "##aadh": 1048,
      "##ala": 1049,
      "##aj": 1050,
      "yidhi": 1051,
      "raac": 1052,
      "##uurta": 1053,
      "##tiga": 1054,
      "arrin": 1055,
      "sadd": 1056,
      "and": 1057,
      "xukuumadda": 1058,
      "guddoomiyaha": 1059,
      "karaa": 1060,
      "dowlada": 1061,
      "qaban": 1062,
      "jec": 1063,
      "day": 1064,
      "bish": 1065,
      "dhag": 1066,
      "kaliya": 1067,
      "ful": 1068,
      "##iyad": 1069,
      "taar": 1070,
      "baaq": 1071,
      "##eedahay": 1072,
      "kan": 1073,
      "##aarka": 1074,
      "saddex": 1075,
      "amniga": 1076,
      "wixii": 1077,
      "##sam": 1078,
      "##mud": 1079,
      "##lan": 1080,
      "##itaanka": 1081,
      "maad": 1082,
      "##iyiinta": 1083,
      "soco": 1084,
      "##man": 1085,
      "leedahay": 1086,
      "##aaday": 1087,
      "kac": 1088,
      "isl": 1089,
      "warbaah": 1090,
      "dhamaan": 1091,
      "##bo": 1092,
      "hogg": 1093,
      "##iif": 1094,
      "afrika": 1095,
      "mark": 1096,
      "maxka": 1097,
      "aas": 1098,
      "##aba": 1099,
      "##eex": 1100,
      "##aajo": 1101,
      "barn": 1102,
      "ahayn": 1103,
      "fadh": 1104,
      "ruu": 1105,
      "##eeyaan": 1106,
      "jar": 1107,
      "madaxda": 1108,
      "dowlad": 1109,
      "##nada": 1110,
      "walba": 1111,
      "jiro": 1112,
      "##keeda": 1113,
      "aanu": 1114,
      "qabtay": 1115,
      "doona": 1116,
      "##mudug": 1117,
      "shalay": 1118,
      "kusoo": 1119,
      "dul": 1120,
      "##yan": 1121,
      "faa": 1122,
      "galmudug": 1123,
      "guur": 1124,
      "barnaam": 1125,
      "##gel": 1126,
      "nid": 1127,
      "galb": 1128,
      "##igu": 1129,
      "masuul": 1130,
      "##aato": 1131,
      "##aama": 1132,
      "mareykanka": 1133,
      "eed": 1134,
      "mahad": 1135,
      "xubn": 1136,
      "dhim": 1137,
      "buux": 1138,
      "cel": 1139,
      "ber": 1140,
      "barnaamij": 1141,
      "noqo": 1142,
      "koonfur": 1143,
      "##eena": 1144,
      "cabdul": 1145,
      "wuxuuna": 1146,
      "qorsh": 1147,
      "hir": 1148,
      "##ani": 1149,
      "dhalin": 1150,
      "all": 1151,
      "##owga": 1152,
      "to": 1153,
      "farm": 1154,
      "fud": 1155,
      "taariikh": 1156,
      "suuq": 1157,
      "##tooy": 1158,
      "kordh": 1159,
      "dhigay": 1160,
      "hogaam": 1161,
      "dhibaat": 1162,
      "warbaahinta": 1163,
      "##ran": 1164,
      "##nimo": 1165,
      "mush": 1166,
      "gool": 1167,
      "halkaas": 1168,
      "saraakii": 1169,
      "warbix": 1170,
      "shirka": 1171,
      "##imaadka": 1172,
      "rag": 1173,
      "sann": 1174,
      "xul": 1175,
      "##aadin": 1176,
      "gel": 1177,
      "caad": 1178,
      "##ut": 1179,
      "baa": 1180,
      "##co": 1181,
      "##iba": 1182,
      "sugan": 1183,
      "gaadh": 1184,
      "tod": 1185,
      "farmaajo": 1186,
      "cadd": 1187,
      "saaray": 1188,
      "dagaalka": 1189,
      "siin": 1190,
      "akh": 1191,
      "##yeen": 1192,
      "waana": 1193,
      "yaqaan": 1194,
      "laab": 1195,
      "isugu": 1196,
      "boo": 1197,
      "gacanta": 1198,
      "dawladda": 1199,
      "qoys": 1200,
      "iisul": 1201,
      "wasaaraha": 1202,
      "karin": 1203,
      "xab": 1204,
      "xigeenka": 1205,
      "wiil": 1206,
      "##nimada": 1207,
      "dhab": 1208,
      "##eh": 1209,
      "cumar": 1210,
      "hadii": 1211,
      "xag": 1212,
      "##waan": 1213,
      "tababar": 1214,
      "dilay": 1215,
      "soomaalida": 1216,
      "##amar": 1217,
      "nolo": 1218,
      "heli": 1219,
      "beel": 1220,
      "labaad": 1221,
      "caafimaadka": 1222,
      "gaaray": 1223,
      "##ef": 1224,
      "##ayl": 1225,
      "##gag": 1226,
      "qaadan": 1227,
      "sidaas": 1228,
      "dhashay": 1229,
      "qaran": 1230,
      "##addu": 1231,
      "turk": 1232,
      "lahayn": 1233,
      "dhaqan": 1234,
      "##ore": 1235,
      "naf": 1236,
      "weli": 1237,
      "maar": 1238,
      "##idda": 1239,
      "##iyiin": 1240,
      "xum": 1241,
      "beesha": 1242,
      "##adood": 1243,
      "##ism": 1244,
      "hays": 1245,
      "dhowr": 1246,
      "maalm": 1247,
      "##eystay": 1248,
      "horr": 1249,
      "iyaga": 1250,
      "xoo": 1251,
      "warar": 1252,
      "saac": 1253,
      "daawo": 1254,
      "##adiisa": 1255,
      "##ayey": 1256,
      "wakii": 1257,
      "xeer": 1258,
      "kuu": 1259,
      "##aaraha": 1260,
      "fudud": 1261,
      "gacan": 1262,
      "tus": 1263,
      "##yey": 1264,
      "##dan": 1265,
      "beer": 1266,
      "##tiisa": 1267,
      "waayo": 1268,
      "bilaab": 1269,
      "askar": 1270,
      "yaab": 1271,
      "cun": 1272,
      "ururka": 1273,
      "##itaan": 1274,
      "garoonka": 1275,
      "ill": 1276,
      "xilli": 1277,
      "cud": 1278,
      "##eeyeen": 1279,
      "guddiga": 1280,
      "dhawaan": 1281,
      "##inayo": 1282,
      "nab": 1283,
      "##jeed": 1284,
      "mun": 1285,
      "jirto": 1286,
      "toos": 1287,
      "##rada": 1288,
      "kooban": 1289,
      "##amada": 1290,
      "##tada": 1291,
      "##ews": 1292,
      "##cel": 1293,
      "iid": 1294,
      "uul": 1295,
      "geer": 1296,
      "shaqo": 1297,
      "##bad": 1298,
      "meesha": 1299,
      "sheegeen": 1300,
      "yimid": 1301,
      "##laahi": 1302,
      "sheegaya": 1303,
      "arday": 1304,
      "karaan": 1305,
      "##ov": 1306,
      "ilaah": 1307,
      "iyagoo": 1308,
      "##idka": 1309,
      "jan": 1310,
      "dhalinyar": 1311,
      "##isa": 1312,
      "qaatay": 1313,
      "qodob": 1314,
      "afar": 1315,
      "leeyihiin": 1316,
      "ula": 1317,
      "kulm": 1318,
      "se": 1319,
      "##aynaa": 1320,
      "qofka": 1321,
      "xiis": 1322,
      "bay": 1323,
      "##ato": 1324,
      "booq": 1325,
      "kuwo": 1326,
      "waj": 1327,
      "caalamka": 1328,
      "##boon": 1329,
      "qoraal": 1330,
      "shaqada": 1331,
      "aanay": 1332,
      "pr": 1333,
      "xilka": 1334,
      "jamh": 1335,
      "xill": 1336,
      "sheek": 1337,
      "##eec": 1338,
      "aal": 1339,
      "muuse": 1340,
      "waxaanu": 1341,
      "##kaaga": 1342,
      "kara": 1343,
      "booliska": 1344,
      "mida": 1345,
      "##soon": 1346,
      "dig": 1347,
      "xaqiij": 1348,
      "cay": 1349,
      "12": 1350,
      "cabdir": 1351,
      "##aabta": 1352,
      "saax": 1353,
      "macal": 1354,
      "##tag": 1355,
      "xor": 1356,
      "##ilaaf": 1357,
      "##del": 1358,
      "##ity": 1359,
      "dhawaaq": 1360,
      "sameeyay": 1361,
      "##yahay": 1362,
      "##tid": 1363,
      "##wayn": 1364,
      "##yaan": 1365,
      "xalay": 1366,
      "##pp": 1367,
      "taagan": 1368,
      "cilm": 1369,
      "helay": 1370,
      "en": 1371,
      "##yahan": 1372,
      "hoggaam": 1373,
      "dhulka": 1374,
      "jamhuur": 1375,
      "islam": 1376,
      "hag": 1377,
      "##tee": 1378,
      "raj": 1379,
      "##iidh": 1380,
      "um": 1381,
      "kulanka": 1382,
      "cudur": 1383,
      "jirin": 1384,
      "##aka": 1385,
      "##shab": 1386,
      "##oona": 1387,
      "##aatan": 1388,
      "15": 1389,
      "##diga": 1390,
      "200": 1391,
      "ing": 1392,
      "taasi": 1393,
      "sp": 1394,
      "##teed": 1395,
      "yur": 1396,
      "##imada": 1397,
      "col": 1398,
      "##bur": 1399,
      "maadaama": 1400,
      "tall": 1401,
      "socday": 1402,
      "can": 1403,
      "faah": 1404,
      "##dhig": 1405,
      "##tooyada": 1406,
      "khilaaf": 1407,
      "kaal": 1408,
      "banaadir": 1409,
      "##oobay": 1410,
      "has": 1411,
      "adda": 1412,
      "gudoomiyaha": 1413,
      "qalabka": 1414,
      "intii": 1415,
      "cir": 1416,
      "dam": 1417,
      "tilmaamay": 1418,
      "##tida": 1419,
      "doonto": 1420,
      "khas": 1421,
      "##sado": 1422,
      "dif": 1423,
      "nax": 1424,
      "cag": 1425,
      "##iisu": 1426,
      "##axmaan": 1427,
      "halkan": 1428,
      "yurub": 1429,
      "gees": 1430,
      "waf": 1431,
      "duul": 1432,
      "dambe": 1433,
      "##lim": 1434,
      "##tin": 1435,
      "uusan": 1436,
      "##igan": 1437,
      "socd": 1438,
      "bixin": 1439,
      "##ona": 1440,
      "kism": 1441,
      "boos": 1442,
      "shaac": 1443,
      "muc": 1444,
      "mushar": 1445,
      "sidaa": 1446,
      "dug": 1447,
      "fik": 1448,
      "##ember": 1449,
      "mo": 1450,
      "maxaa": 1451,
      "inka": 1452,
      "galbeed": 1453,
      "##ton": 1454,
      "dadkii": 1455,
      "##adooda": 1456,
      "##ayeen": 1457,
      "maraykanka": 1458,
      "hadd": 1459,
      "wakh": 1460,
      "##iyaa": 1461,
      "xuseen": 1462,
      "markaas": 1463,
      "ayey": 1464,
      "##ho": 1465,
      "ib": 1466,
      "caan": 1467,
      "##ki": 1468,
      "kub": 1469,
      "dee": 1470,
      "dood": 1471,
      "noqday": 1472,
      "difaac": 1473,
      "dast": 1474,
      "khal": 1475,
      "adk": 1476,
      "dr": 1477,
      "taal": 1478,
      "badb": 1479,
      "##uc": 1480,
      "con": 1481,
      "qaada": 1482,
      "dhacday": 1483,
      "tac": 1484,
      "carr": 1485,
      "xad": 1486,
      "sannad": 1487,
      "waree": 1488,
      "dastuur": 1489,
      "inter": 1490,
      "kismaayo": 1491,
      "30": 1492,
      "bog": 1493,
      "bishii": 1494,
      "dhic": 1495,
      "##rid": 1496,
      "##shaha": 1497,
      "ciidan": 1498,
      "##asha": 1499,
      "muuj": 1500,
      "carab": 1501,
      "dhaafay": 1502,
      "##iinka": 1503,
      "hory": 1504,
      "bis": 1505,
      "xaaf": 1506,
      "##laan": 1507,
      "sababta": 1508,
      "sac": 1509,
      "##min": 1510,
      "been": 1511,
      "caafimaad": 1512,
      "11": 1513,
      "jirta": 1514,
      "labo": 1515,
      "wac": 1516,
      "li": 1517,
      "arin": 1518,
      "by": 1519,
      "##tey": 1520,
      "lasoo": 1521,
      "##umarka": 1522,
      "somali": 1523,
      "yeesh": 1524,
      "wali": 1525,
      "##ill": 1526,
      "jawaab": 1527,
      "dhamm": 1528,
      "islamar": 1529,
      "fog": 1530,
      "##addii": 1531,
      "##sta": 1532,
      "may": 1533,
      "##eeye": 1534,
      "sanadkii": 1535,
      "suur": 1536,
      "dun": 1537,
      "or": 1538,
      "shaqaalaha": 1539,
      "iney": 1540,
      "adduunka": 1541,
      "more": 1542,
      "duq": 1543,
      "amis": 1544,
      "caasimada": 1545,
      "##eysaa": 1546,
      "##aak": 1547,
      "taliyaha": 1548,
      "##maanka": 1549,
      "tr": 1550,
      "ganacsiga": 1551,
      "dac": 1552,
      "waxyaab": 1553,
      "gaadiid": 1554,
      "##adaas": 1555,
      "waxbarashada": 1556,
      "siyaasadeed": 1557,
      "xubnaha": 1558,
      "##dar": 1559,
      "amisom": 1560,
      "qas": 1561,
      "kama": 1562,
      "jeer": 1563,
      "##ce": 1564,
      "sameeyo": 1565,
      "##taas": 1566,
      "##han": 1567,
      "##aaran": 1568,
      "##line": 1569,
      "##ide": 1570,
      "kab": 1571,
      "ayna": 1572,
      "kur": 1573,
      "##iig": 1574,
      "gaarka": 1575,
      "turkiga": 1576,
      "aynu": 1577,
      "imaan": 1578,
      "yimaad": 1579,
      "xafiiska": 1580,
      "oday": 1581,
      "halkaasi": 1582,
      "doontaa": 1583,
      "caq": 1584,
      "read": 1585,
      "##laha": 1586,
      "wel": 1587,
      "ingir": 1588,
      "qaarkood": 1589,
      "soomaali": 1590,
      "##ata": 1591,
      "boqor": 1592,
      "beeg": 1593,
      "karto": 1594,
      "daray": 1595,
      "ruux": 1596,
      "daah": 1597,
      "roob": 1598,
      "nas": 1599,
      "for": 1600,
      "wadanka": 1601,
      "qaramada": 1602,
      "caalamiga": 1603,
      "##too": 1604,
      "xaaj": 1605,
      "warbixin": 1606,
      "baab": 1607,
      "dalalka": 1608,
      "kadd": 1609,
      "st": 1610,
      "##anaya": 1611,
      "saxaaf": 1612,
      "akhr": 1613,
      "taasoo": 1614,
      "biir": 1615,
      "lala": 1616,
      "##op": 1617,
      "kaddib": 1618,
      "##ve": 1619,
      "haatan": 1620,
      "ii": 1621,
      "lahaayeen": 1622,
      "lama": 1623,
      "xun": 1624,
      "biyaha": 1625,
      "##ine": 1626,
      "shan": 1627,
      "dhismaha": 1628,
      "goobta": 1629,
      "ol": 1630,
      "qaado": 1631,
      "burbur": 1632,
      "wayn": 1633,
      "2016": 1634,
      "##ited": 1635,
      "saxiix": 1636,
      "doorashooyinka": 1637,
      "suuqa": 1638,
      "##gar": 1639,
      "muuqaal": 1640,
      "warsh": 1641,
      "dibadda": 1642,
      "##ham": 1643,
      "ciidamo": 1644,
      "raad": 1645,
      "munaas": 1646,
      "aamin": 1647,
      "kel": 1648,
      "##eef": 1649,
      "wuu": 1650,
      "dhaqanka": 1651,
      "##ment": 1652,
      "##tooda": 1653,
      "kalena": 1654,
      "nidaamka": 1655,
      "gabad": 1656,
      "##har": 1657,
      "##gii": 1658,
      "habeen": 1659,
      "jubbal": 1660,
      "yuus": 1661,
      "jac": 1662,
      "18": 1663,
      "darteed": 1664,
      "at": 1665,
      "wey": 1666,
      "ism": 1667,
      "sharci": 1668,
      "diid": 1669,
      "##adaan": 1670,
      "min": 1671,
      "lahay": 1672,
      "##ayada": 1673,
      "musta": 1674,
      "xay": 1675,
      "##ort": 1676,
      "yuusuf": 1677,
      "waxba": 1678,
      "howlgal": 1679,
      "muujin": 1680,
      "jubbaland": 1681,
      "muslim": 1682,
      "ogol": 1683,
      "##luum": 1684,
      "horay": 1685,
      "marx": 1686,
      "helo": 1687,
      "deeq": 1688,
      "kooxaha": 1689,
      "united": 1690,
      "mucaar": 1691,
      "jamhuuriyadda": 1692,
      "online": 1693,
      "kaa": 1694,
      "idin": 1695,
      "##una": 1696,
      "jooj": 1697,
      "run": 1698,
      "ammaanka": 1699,
      "qalab": 1700,
      "##adaasi": 1701,
      "##atar": 1702,
      "##ban": 1703,
      "horumarinta": 1704,
      "midowga": 1705,
      "saaxiib": 1706,
      "goor": 1707,
      "alle": 1708,
      "pro": 1709,
      "bir": 1710,
      "if": 1711,
      "ball": 1712,
      "boqol": 1713,
      "##lay": 1714,
      "waqooy": 1715,
      "##aystay": 1716,
      "islamarkaana": 1717,
      "xaalada": 1718,
      "sab": 1719,
      "dambeeyay": 1720,
      "nuur": 1721,
      "##ester": 1722,
      "##ind": 1723,
      "ga": 1724,
      "##bax": 1725,
      "##yah": 1726,
      "qaat": 1727,
      "##cad": 1728,
      "xildhibaanada": 1729,
      "tel": 1730,
      "sharciga": 1731,
      "wakiil": 1732,
      "madaxtooyada": 1733,
      "xidhiidh": 1734,
      "##taag": 1735,
      "##galka": 1736,
      "intaa": 1737,
      "shabeel": 1738,
      "guu": 1739,
      "##gaar": 1740,
      "dhaqaalaha": 1741,
      "tani": 1742,
      "##ary": 1743,
      "ganacs": 1744,
      "##ric": 1745,
      "caasimadda": 1746,
      "yo": 1747,
      "##iixi": 1748,
      "##adana": 1749,
      "xool": 1750,
      "xer": 1751,
      "##weyne": 1752,
      "##cyo": 1753,
      "##tig": 1754,
      "14": 1755,
      "##iiraan": 1756,
      "usoo": 1757,
      "000": 1758,
      "gash": 1759,
      "diir": 1760,
      "##xda": 1761,
      "yee": 1762,
      "##iq": 1763,
      "qol": 1764,
      "shirkadda": 1765,
      "xukun": 1766,
      "shacab": 1767,
      "dadaal": 1768,
      "##pr": 1769,
      "##ague": 1770,
      "waxyaabaha": 1771,
      "diyaaradaha": 1772,
      "fas": 1773,
      "illaa": 1774,
      "wadaag": 1775,
      "##kiis": 1776,
      "##waad": 1777,
      "ba": 1778,
      "##eynaa": 1779,
      "talag": 1780,
      "league": 1781,
      "biixi": 1782,
      "haween": 1783,
      "madaxa": 1784,
      "milyan": 1785,
      "##ama": 1786,
      "qiy": 1787,
      "rasmi": 1788,
      "walaal": 1789,
      "waaweyn": 1790,
      "##uug": 1791,
      "dek": 1792,
      "##ayaal": 1793,
      "ahaayeen": 1794,
      "##ooday": 1795,
      "ujeed": 1796,
      "##uuti": 1797,
      "waliba": 1798,
      "geeriy": 1799,
      "lahayd": 1800,
      "nolosha": 1801,
      "dheeraad": 1802,
      "saraakiisha": 1803,
      "magacaabay": 1804,
      "samayn": 1805,
      "wasaare": 1806,
      "sir": 1807,
      "##irka": 1808,
      "kulmiye": 1809,
      "##tahay": 1810,
      "25": 1811,
      "markaa": 1812,
      "maalinta": 1813,
      "macaam": 1814,
      "bari": 1815,
      "bilow": 1816,
      "xit": 1817,
      "eth": 1818,
      "gelin": 1819,
      "argag": 1820,
      "arimaha": 1821,
      "lug": 1822,
      "ahi": 1823,
      "qabto": 1824,
      "xiriirka": 1825,
      "culus": 1826,
      "intaas": 1827,
      "jim": 1828,
      "##kaal": 1829,
      "naga": 1830,
      "ibr": 1831,
      "sameyn": 1832,
      "hortag": 1833,
      "madrid": 1834,
      "##ess": 1835,
      "midoobay": 1836,
      "13": 1837,
      "aha": 1838,
      "gaalka": 1839,
      "biyo": 1840,
      "nat": 1841,
      "badda": 1842,
      "kalsoon": 1843,
      "cis": 1844,
      "socod": 1845,
      "qaabil": 1846,
      "yeelan": 1847,
      "guda": 1848,
      "cabdullaahi": 1849,
      "16": 1850,
      "miis": 1851,
      "daw": 1852,
      "km": 1853,
      "##jib": 1854,
      "##ataa": 1855,
      "aqalka": 1856,
      "##ers": 1857,
      "##tanka": 1858,
      "gaas": 1859,
      "##iirka": 1860,
      "##keed": 1861,
      "daree": 1862,
      "bin": 1863,
      "##mb": 1864,
      "madaxwayn": 1865,
      "jabuuti": 1866,
      "##kkkkkkkk": 1867,
      "dur": 1868,
      "ahna": 1869,
      "##dada": 1870,
      "dunida": 1871,
      "shaqeyn": 1872,
      "##weynaha": 1873,
      "##ond": 1874,
      "xaaji": 1875,
      "qax": 1876,
      "##ayga": 1877,
      "xitaa": 1878,
      "dhintay": 1879,
      "bisha": 1880,
      "aniga": 1881,
      "gaari": 1882,
      "dhaqaale": 1883,
      "dawlada": 1884,
      "##yeel": 1885,
      "talagalay": 1886,
      "safar": 1887,
      "farx": 1888,
      "cilmi": 1889,
      "shur": 1890,
      "waal": 1891,
      "todob": 1892,
      "##du": 1893,
      "##sen": 1894,
      "xirf": 1895,
      "isbed": 1896,
      "goboleed": 1897,
      "##yaha": 1898,
      "qan": 1899,
      "dastuurka": 1900,
      "baaqay": 1901,
      "gobalka": 1902,
      "mudan": 1903,
      "somaliya": 1904,
      "soomal": 1905,
      "gobolada": 1906,
      "socon": 1907,
      "waqti": 1908,
      "2018": 1909,
      "shiin": 1910,
      "kun": 1911,
      "xaaladda": 1912,
      "saarka": 1913,
      "ciidam": 1914,
      "##shiga": 1915,
      "shariif": 1916,
      "maan": 1917,
      "##aabada": 1918,
      "siyaasadda": 1919,
      "lix": 1920,
      "daq": 1921,
      "##aaha": 1922,
      "xoogga": 1923,
      "kastaba": 1924,
      "##aare": 1925,
      "##kani": 1926,
      "farsam": 1927,
      "guriga": 1928,
      "mashr": 1929,
      "2014": 1930,
      "cagta": 1931,
      "##jinta": 1932,
      "##ugu": 1933,
      "faar": 1934,
      "jo": 1935,
      "habboon": 1936,
      "hiiraan": 1937,
      "tagay": 1938,
      "##aadda": 1939,
      "isk": 1940,
      "##ariis": 1941,
      "haweenka": 1942,
      "mashruuc": 1943,
      "us": 1944,
      "eng": 1945,
      "real": 1946,
      "##ion": 1947,
      "jil": 1948,
      "fad": 1949,
      "tab": 1950,
      "natiij": 1951,
      "laf": 1952,
      "2017": 1953,
      "hooy": 1954,
      "sw": 1955,
      "gaalkacyo": 1956,
      "##inaya": 1957,
      "xiddiga": 1958,
      "tirada": 1959,
      "##aday": 1960,
      "##tam": 1961,
      "ciyaarta": 1962,
      "berber": 1963,
      "##deen": 1964,
      "maxkamadda": 1965,
      "##ist": 1966,
      "maleesh": 1967,
      "gaab": 1968,
      "saldhig": 1969,
      "goboleedka": 1970,
      "##alada": 1971,
      "xam": 1972,
      "xubno": 1973,
      "beddel": 1974,
      "hur": 1975,
      "macluum": 1976,
      "kuna": 1977,
      "xuq": 1978,
      "co": 1979,
      "##oowe": 1980,
      "xud": 1981,
      "uk": 1982,
      "musharax": 1983,
      "diray": 1984,
      "cabdiraxmaan": 1985,
      "17": 1986,
      "dacw": 1987,
      "##iop": 1988,
      "jecel": 1989,
      "heerka": 1990,
      "garan": 1991,
      "geed": 1992,
      "tiro": 1993,
      "jooga": 1994,
      "##deg": 1995,
      "dareen": 1996,
      "ahaatee": 1997,
      "horyaalka": 1998,
      "gaadiidka": 1999,
      "fir": 2000,
      "aab": 2001,
      "qiimaha": 2002,
      "kana": 2003,
      "adaha": 2004,
      "warq": 2005,
      "mux": 2006,
      "koowaad": 2007,
      "hadalka": 2008,
      "daab": 2009,
      "kol": 2010,
      "##umo": 2011,
      "kuma": 2012,
      "sharaf": 2013,
      "hees": 2014,
      "iga": 2015,
      "rid": 2016,
      "daqiiq": 2017,
      "web": 2018,
      "##kana": 2019,
      "##go": 2020,
      "qaabka": 2021,
      "agaas": 2022,
      "naq": 2023,
      "dhakh": 2024,
      "##chester": 2025,
      "sul": 2026,
      "ans": 2027,
      "xuquuq": 2028,
      "##obi": 2029,
      "ethiop": 2030,
      "waad": 2031,
      "##iisii": 2032,
      "ninka": 2033,
      "jireen": 2034,
      "dhiir": 2035,
      "fiir": 2036,
      "manchester": 2037,
      "magacaabo": 2038,
      "##aydha": 2039,
      "ray": 2040,
      "##yihiin": 2041,
      "qurux": 2042,
      "##bka": 2043,
      "##iina": 2044,
      "##eyl": 2045,
      "dhaca": 2046,
      "xeeb": 2047,
      "##stoo": 2048,
      "po": 2049,
      "##uk": 2050,
      "##ley": 2051,
      "degm": 2052,
      "xusay": 2053,
      "naxariis": 2054,
      "tax": 2055,
      "jeeda": 2056,
      "##aayay": 2057,
      "warg": 2058,
      "##keen": 2059,
      "ilaahay": 2060,
      "jirtay": 2061,
      "##joog": 2062,
      "##sadeen": 2063,
      "24": 2064,
      "##uumada": 2065,
      "bedel": 2066,
      "diinta": 2067,
      "##be": 2068,
      "horey": 2069,
      "xanuun": 2070,
      "toddob": 2071,
      "ceel": 2072,
      "xaqiiq": 2073,
      "city": 2074,
      "kugu": 2075,
      "##ap": 2076,
      "2015": 2077,
      "afhay": 2078,
      "vide": 2079,
      "##soor": 2080,
      "islaam": 2081,
      "noqdo": 2082,
      "tusaale": 2083,
      "taab": 2084,
      "habka": 2085,
      "##shad": 2086,
      "dagaalam": 2087,
      "lacagta": 2088,
      "yaraan": 2089,
      "##are": 2090,
      "##aaso": 2091,
      "##tood": 2092,
      "sic": 2093,
      "waxana": 2094,
      "badbaad": 2095,
      "guddoomiye": 2096,
      "mustaq": 2097,
      "news": 2098,
      "ganacsi": 2099,
      "islaamka": 2100,
      "qoray": 2101,
      "baad": 2102,
      "wasiirada": 2103,
      "iyagu": 2104,
      "qabiil": 2105,
      "mat": 2106,
      "baan": 2107,
      "baydha": 2108,
      "aj": 2109,
      "magaca": 2110,
      "xafl": 2111,
      "##riga": 2112,
      "nair": 2113,
      "##net": 2114,
      "##bada": 2115,
      "ho": 2116,
      "diiwaan": 2117,
      "noqotay": 2118,
      "ingiriiska": 2119,
      "taariikhda": 2120,
      "##aska": 2121,
      "##ulka": 2122,
      "2020": 2123,
      "tob": 2124,
      "hot": 2125,
      "##ly": 2126,
      "maska": 2127,
      "##sadaan": 2128,
      "##shka": 2129,
      "fr": 2130,
      "##est": 2131,
      "kaasoo": 2132,
      "inkastoo": 2133,
      "##siy": 2134,
      "##ayaash": 2135,
      "##uuf": 2136,
      "raax": 2137,
      "faarax": 2138,
      "dhiib": 2139,
      "qad": 2140,
      "nahay": 2141,
      "##oof": 2142,
      "nairobi": 2143,
      "fah": 2144,
      "haddana": 2145,
      "diiday": 2146,
      "##iise": 2147,
      "##sea": 2148,
      "##edda": 2149,
      "magacaab": 2150,
      "21": 2151,
      "sub": 2152,
      "doortay": 2153,
      "keliya": 2154,
      "uma": 2155,
      "agaasimaha": 2156,
      "waxan": 2157,
      "wasaarada": 2158,
      "##satay": 2159,
      "##aabka": 2160,
      "barcel": 2161,
      "maalmood": 2162,
      "xukuumada": 2163,
      "nidaam": 2164,
      "garoowe": 2165,
      "siiyo": 2166,
      "bel": 2167,
      "teg": 2168,
      "##ph": 2169,
      "calaam": 2170,
      "buug": 2171,
      "barcelona": 2172,
      "xuku": 2173,
      "boor": 2174,
      "gaadhay": 2175,
      "##bi": 2176,
      "dhici": 2177,
      "##aaya": 2178,
      "iskaa": 2179,
      "dhiig": 2180,
      "imaar": 2181,
      "shaba": 2182,
      "dadku": 2183,
      "dalkaasi": 2184,
      "bilood": 2185,
      "xiran": 2186,
      "uuna": 2187,
      "cunt": 2188,
      "saa": 2189,
      "##ihiisa": 2190,
      "indha": 2191,
      "daac": 2192,
      "ta": 2193,
      "amar": 2194,
      "isbit": 2195,
      "##oobe": 2196,
      "ged": 2197,
      "##daa": 2198,
      "maalintii": 2199,
      "ardayda": 2200,
      "barnaamijka": 2201,
      "qaybta": 2202,
      "socota": 2203,
      "##tr": 2204,
      "##dheer": 2205,
      "no": 2206,
      "goobaha": 2207,
      "shiinaha": 2208,
      "sarr": 2209,
      "garab": 2210,
      "alshab": 2211,
      "##ier": 2212,
      "100": 2213,
      "##diisa": 2214,
      "weyd": 2215,
      "chel": 2216,
      "##ek": 2217,
      "ac": 2218,
      "ibraah": 2219,
      "beelaha": 2220,
      "diin": 2221,
      "ug": 2222,
      "##keena": 2223,
      "idaac": 2224,
      "isagu": 2225,
      "khud": 2226,
      "arsen": 2227,
      "xafiis": 2228,
      "igu": 2229,
      "caawa": 2230,
      "ast": 2231,
      "##taasi": 2232,
      "dawlad": 2233,
      "xoogan": 2234,
      "arkay": 2235,
      "aheyd": 2236,
      "den": 2237,
      "qiyaas": 2238,
      "askari": 2239,
      "##ca": 2240,
      "afka": 2241,
      "faaf": 2242,
      "caw": 2243,
      "ethiopia": 2244,
      "bo": 2245,
      "sad": 2246,
      "sheegayaan": 2247,
      "##eeyn": 2248,
      "chelsea": 2249,
      "aasaas": 2250,
      "banaan": 2251,
      "hayo": 2252,
      "doonta": 2253,
      "yeeshay": 2254,
      "2012": 2255,
      "keenay": 2256,
      "lag": 2257,
      "sah": 2258,
      "##xa": 2259,
      "galeen": 2260,
      "dhaqaaq": 2261,
      "dhalinyarada": 2262,
      "istaag": 2263,
      "mr": 2264,
      "daryeel": 2265,
      "dhexeeya": 2266,
      "##aadkii": 2267,
      "daro": 2268,
      "par": 2269,
      "##aadaan": 2270,
      "##ino": 2271,
      "bilaabo": 2272,
      "adiga": 2273,
      "ciyaareed": 2274,
      "##eyr": 2275,
      "##gad": 2276,
      "haya": 2277,
      "nooca": 2278,
      "shid": 2279,
      "##one": 2280,
      "##siyada": 2281,
      "tartanka": 2282,
      "reeb": 2283,
      "khar": 2284,
      "##uba": 2285,
      "##sato": 2286,
      "mudug": 2287,
      "lam": 2288,
      "##aca": 2289,
      "inoo": 2290,
      "baydhabo": 2291,
      "afric": 2292,
      "kaloo": 2293,
      "##rax": 2294,
      "yeer": 2295,
      "##tirsan": 2296,
      "hase": 2297,
      "weerarka": 2298,
      "celin": 2299,
      "maxay": 2300,
      "##ans": 2301,
      "tim": 2302,
      "shah": 2303,
      "jaal": 2304,
      "berbera": 2305,
      "rak": 2306,
      "meelaha": 2307,
      "amaanka": 2308,
      "baxday": 2309,
      "fid": 2310,
      "wado": 2311,
      "ilaalinta": 2312,
      "##uary": 2313,
      "##ry": 2314,
      "bilaabay": 2315,
      "jeediyay": 2316,
      "shaqayn": 2317,
      "##faah": 2318,
      "doorasho": 2319,
      "katirsan": 2320,
      "##ten": 2321,
      "##up": 2322,
      "duub": 2323,
      "carabta": 2324,
      "kham": 2325,
      "abaal": 2326,
      "mic": 2327,
      "dhibaato": 2328,
      "##teeda": 2329,
      "degan": 2330,
      "liver": 2331,
      "22": 2332,
      "qabo": 2333,
      "tix": 2334,
      "dadweynaha": 2335,
      "fan": 2336,
      "xiriira": 2337,
      "##pool": 2338,
      "deegaanada": 2339,
      "yaalla": 2340,
      "mis": 2341,
      "doonayo": 2342,
      "##ue": 2343,
      "doonin": 2344,
      "talo": 2345,
      "arsenal": 2346,
      "hawada": 2347,
      "##laanyo": 2348,
      "br": 2349,
      "kuwaasi": 2350,
      "degaan": 2351,
      "cudurka": 2352,
      "##ej": 2353,
      "joogto": 2354,
      "olol": 2355,
      "qaadi": 2356,
      "##iish": 2357,
      "hadaba": 2358,
      "qaadeen": 2359,
      "##taada": 2360,
      "sameeyey": 2361,
      "##inayaa": 2362,
      "cismaan": 2363,
      "horumarka": 2364,
      "liverpool": 2365,
      "caadiga": 2366,
      "ciise": 2367,
      "dambeyn": 2368,
      "faahfaah": 2369,
      "waajib": 2370,
      "masar": 2371,
      "saaro": 2372,
      "eh": 2373,
      "gaash": 2374,
      "ansix": 2375,
      "mana": 2376,
      "xulka": 2377,
      "##hayaha": 2378,
      "khay": 2379,
      "degdeg": 2380,
      "wadahad": 2381,
      "farax": 2382,
      "##tor": 2383,
      "##eyga": 2384,
      "##ooyinkii": 2385,
      "##iyihii": 2386,
      "gashay": 2387,
      "dhigo": 2388,
      "mudo": 2389,
      "siilaanyo": 2390,
      "weh": 2391,
      "ciyaaraha": 2392,
      "kulmay": 2393,
      "##ain": 2394,
      "##aysal": 2395,
      "##onal": 2396,
      "dhallin": 2397,
      "daa": 2398,
      "sun": 2399,
      "aaminsan": 2400,
      "##atada": 2401,
      "kulam": 2402,
      "##de": 2403,
      "alshabaab": 2404,
      "daabac": 2405,
      "##igiisa": 2406,
      "##ne": 2407,
      "heshiiska": 2408,
      "muw": 2409,
      "internet": 2410,
      "uun": 2411,
      "hagaaj": 2412,
      "caab": 2413,
      "jul": 2414,
      "daahir": 2415,
      "##lah": 2416,
      "fac": 2417,
      "keentay": 2418,
      "##oolka": 2419,
      "xogta": 2420,
      "degaanka": 2421,
      "gum": 2422,
      "xaas": 2423,
      "mada": 2424,
      "##ooyo": 2425,
      "##aahdo": 2426,
      "##ondon": 2427,
      "eego": 2428,
      "guddi": 2429,
      "tayada": 2430,
      "warf": 2431,
      "haddaba": 2432,
      "dhacdo": 2433,
      "bariga": 2434,
      "siiyay": 2435,
      "ismaac": 2436,
      "taageero": 2437,
      "argagix": 2438,
      "sif": 2439,
      "jaamacadda": 2440,
      "video": 2441,
      "##uudiga": 2442,
      "aanka": 2443,
      "wer": 2444,
      "##gol": 2445,
      "london": 2446,
      "##ump": 2447,
      "gabadh": 2448,
      "jun": 2449,
      "##ip": 2450,
      "khatar": 2451,
      "hadana": 2452,
      "filim": 2453,
      "##qab": 2454,
      "xili": 2455,
      "##meer": 2456,
      "saartay": 2457,
      "##ook": 2458,
      "bulsh": 2459,
      "##dhaq": 2460,
      "qaxoo": 2461,
      "fin": 2462,
      "cam": 2463,
      "saraakiil": 2464,
      "##aalo": 2465,
      "##eeyaa": 2466,
      "##quul": 2467,
      "dhism": 2468,
      "sababtoo": 2469,
      "##eyska": 2470,
      "rad": 2471,
      "garsoor": 2472,
      "caj": 2473,
      "##idu": 2474,
      "yaabaa": 2475,
      "waram": 2476,
      "dilka": 2477,
      "feb": 2478,
      "##wal": 2479,
      "##yadii": 2480,
      "##hat": 2481,
      "26": 2482,
      "rog": 2483,
      "##eri": 2484,
      "2019": 2485,
      "nolosh": 2486,
      "waqtiga": 2487,
      "qoraalka": 2488,
      "warshadaha": 2489,
      "##miga": 2490,
      "caruur": 2491,
      "27": 2492,
      "bandhigay": 2493,
      "bac": 2494,
      "barta": 2495,
      "tuur": 2496,
      "shabak": 2497,
      "##aaro": 2498,
      "hirshab": 2499,
      "50": 2500,
      "##toy": 2501,
      "yir": 2502,
      "una": 2503,
      "bah": 2504,
      "gen": 2505,
      "##eelle": 2506,
      "marxuum": 2507,
      "rum": 2508,
      "buur": 2509,
      "ismaaciil": 2510,
      "saaka": 2511,
      "goboleedyada": 2512,
      "dhawr": 2513,
      "ina": 2514,
      "##isan": 2515,
      "weydii": 2516,
      "##galay": 2517,
      "dhawaaqay": 2518,
      "##ibr": 2519,
      "timid": 2520,
      "##qabad": 2521,
      "##biga": 2522,
      "caawin": 2523,
      "##iisha": 2524,
      "tij": 2525,
      "hayaan": 2526,
      "xiray": 2527,
      "caadi": 2528,
      "dhallinyar": 2529,
      "##oc": 2530,
      "daba": 2531,
      "sil": 2532,
      "##ium": 2533,
      "##hood": 2534,
      "##adiif": 2535,
      "nim": 2536,
      "helaan": 2537,
      "kmg": 2538,
      "xigeen": 2539,
      "shil": 2540,
      "qud": 2541,
      "muwaadin": 2542,
      "##eedu": 2543,
      "199": 2544,
      "##pt": 2545,
      "darro": 2546,
      "geeriyooday": 2547,
      "23": 2548,
      "hind": 2549,
      "geeska": 2550,
      "sannadkii": 2551,
      "galo": 2552,
      "iw": 2553,
      "baaritaan": 2554,
      "moo": 2555,
      "##isada": 2556,
      "sc": 2557,
      "idiin": 2558,
      "##ei": 2559,
      "##oll": 2560,
      "yim": 2561,
      "isag": 2562,
      "ibraahim": 2563,
      "##ayno": 2564,
      "oc": 2565,
      "isr": 2566,
      "telef": 2567,
      "##usha": 2568,
      "wadajir": 2569,
      "waxqabad": 2570,
      "##isaa": 2571,
      "talyaan": 2572,
      "##siin": 2573,
      "##aali": 2574,
      "sed": 2575,
      "##acsan": 2576,
      "siciid": 2577,
      "nolol": 2578,
      "afhayeenka": 2579,
      "##aamaha": 2580,
      "##ith": 2581,
      "##dho": 2582,
      "geystay": 2583,
      "##kiisu": 2584,
      "kuwaasoo": 2585,
      "trump": 2586,
      "madoobe": 2587,
      "wareej": 2588,
      "kuwii": 2589,
      "dheg": 2590,
      "jii": 2591,
      "muj": 2592,
      "kah": 2593,
      "nadiif": 2594,
      "##aarta": 2595,
      "isna": 2596,
      "new": 2597,
      "qaabilsan": 2598,
      "##caan": 2599,
      "sool": 2600,
      "dhacd": 2601,
      "jecl": 2602,
      "ex": 2603,
      "##qaad": 2604,
      "qorshaha": 2605,
      "qaybaha": 2606,
      "##ge": 2607,
      "##ard": 2608,
      "kaasi": 2609,
      "ud": 2610,
      "##sada": 2611,
      "2021": 2612,
      "cabdil": 2613,
      "laas": 2614,
      "magaalooyinka": 2615,
      "degmooyinka": 2616,
      "noqoto": 2617,
      "##ation": 2618,
      "daad": 2619,
      "##liga": 2620,
      "rasaas": 2621,
      "ruushka": 2622,
      "xisaab": 2623,
      "##ram": 2624,
      "##akam": 2625,
      "bill": 2626,
      "sidan": 2627,
      "##gelinta": 2628,
      "gedo": 2629,
      "xamar": 2630,
      "aduunka": 2631,
      "nor": 2632,
      "bu": 2633,
      "##nayn": 2634,
      "eg": 2635,
      "app": 2636,
      "iwm": 2637,
      "haysa": 2638,
      "gobollada": 2639,
      "karta": 2640,
      "toban": 2641,
      "bas": 2642,
      "bak": 2643,
      "fursad": 2644,
      "oggol": 2645,
      "aanan": 2646,
      "maaha": 2647,
      "socdo": 2648,
      "isticmaalka": 2649,
      "koonfurta": 2650,
      "##iyeyaasha": 2651,
      "##raad": 2652,
      "isticmaalo": 2653,
      "##bc": 2654,
      "fara": 2655,
      "buuxda": 2656,
      "dhibaatada": 2657,
      "fash": 2658,
      "aay": 2659,
      "cash": 2660,
      "jirka": 2661,
      "difaaca": 2662,
      "dhaliyay": 2663,
      "##lu": 2664,
      "mir": 2665,
      "##niin": 2666,
      "wadamada": 2667,
      "xakam": 2668,
      "hamb": 2669,
      "marti": 2670,
      "bang": 2671,
      "erg": 2672,
      "ram": 2673,
      "wadada": 2674,
      "##aystir": 2675,
      "miisaan": 2676,
      "shakh": 2677,
      "##ord": 2678,
      "geys": 2679,
      "duc": 2680,
      "kormeer": 2681,
      "gun": 2682,
      "adeegsan": 2683,
      "comment": 2684,
      "2013": 2685,
      "##fs": 2686,
      "gub": 2687,
      "dhagax": 2688,
      "alaab": 2689,
      "balan": 2690,
      "raadin": 2691,
      "anigu": 2692,
      "di": 2693,
      "galab": 2694,
      "##igh": 2695,
      "dec": 2696,
      "midka": 2697,
      "afg": 2698,
      "boosaaso": 2699,
      "shirkadaha": 2700,
      "tuul": 2701,
      "med": 2702,
      "ahan": 2703,
      "wadaan": 2704,
      "ro": 2705,
      "lay": 2706,
      "warfaaf": 2707,
      "##ooni": 2708,
      "##ano": 2709,
      "iil": 2710,
      "yaala": 2711,
      "apr": 2712,
      "bixiyay": 2713,
      "dhexmar": 2714,
      "##aynu": 2715,
      "##siinta": 2716,
      "filayaa": 2717,
      "##ts": 2718,
      "awoodda": 2719,
      "28": 2720,
      "bixi": 2721,
      "tash": 2722,
      "alaabta": 2723,
      "mucaaradka": 2724,
      "hesho": 2725,
      "dhoof": 2726,
      "sarkaal": 2727,
      "ed": 2728,
      "ciyaartoy": 2729,
      "##gaha": 2730,
      "xoghayaha": 2731,
      "dhowaan": 2732,
      "socodka": 2733,
      "ballan": 2734,
      "waxuu": 2735,
      "ahaanba": 2736,
      "sameeyeen": 2737,
      "alb": 2738,
      "nasiib": 2739,
      "xoolaha": 2740,
      "kulankii": 2741,
      "##uudaha": 2742,
      "sanadka": 2743,
      "xaw": 2744,
      "kadibna": 2745,
      "khadka": 2746,
      "waddani": 2747,
      "der": 2748,
      "fikir": 2749,
      "koobka": 2750,
      "galaan": 2751,
      "dim": 2752,
      "galin": 2753,
      "yeelay": 2754,
      "##aalad": 2755,
      "marin": 2756,
      "##yahanka": 2757,
      "hol": 2758,
      "##hamp": 2759,
      "jimc": 2760,
      "xaalad": 2761,
      "furay": 2762,
      "badal": 2763,
      "dugsiga": 2764,
      "daran": 2765,
      "##ihi": 2766,
      "##naanta": 2767,
      "waxey": 2768,
      "ammaan": 2769,
      "##addan": 2770,
      "##eyda": 2771,
      "siis": 2772,
      "qeybta": 2773,
      "##jar": 2774,
      "##ork": 2775,
      "##tix": 2776,
      "be": 2777,
      "garow": 2778,
      "kubadda": 2779,
      "prem": 2780,
      "moha": 2781,
      "tamar": 2782,
      "##sig": 2783,
      "adeegyada": 2784,
      "##ji": 2785,
      "ayaana": 2786,
      "xaqiijiyay": 2787,
      "tago": 2788,
      "mah": 2789,
      "awg": 2790,
      "cr": 2791,
      "shaqeeya": 2792,
      "##ahooda": 2793,
      "warfaafinta": 2794,
      "##gala": 2795,
      "dumarka": 2796,
      "waqooyi": 2797,
      "horj": 2798,
      "ninkii": 2799,
      "aanta": 2800,
      "maaliyadda": 2801,
      "waqt": 2802,
      "saameyn": 2803,
      "arrintan": 2804,
      "hambal": 2805,
      "iman": 2806,
      "lagaga": 2807,
      "##ko": 2808,
      "tartan": 2809,
      "hors": 2810,
      "amaan": 2811,
      "##doon": 2812,
      "##inayay": 2813,
      "aqbal": 2814,
      "dhar": 2815,
      "##balka": 2816,
      "kux": 2817,
      "##ich": 2818,
      "macn": 2819,
      "cabsi": 2820,
      "eedeeyay": 2821,
      "post": 2822,
      "##dhan": 2823,
      "xabsiga": 2824,
      "net": 2825,
      "##imil": 2826,
      "dool": 2827,
      "fikr": 2828,
      "isw": 2829,
      "##antahay": 2830,
      "bixinta": 2831,
      "radio": 2832,
      "baxa": 2833,
      "##dal": 2834,
      "jacayl": 2835,
      "africa": 2836,
      "faraxsan": 2837,
      "tig": 2838,
      "kom": 2839,
      "saaran": 2840,
      "cabb": 2841,
      "god": 2842,
      "##akh": 2843,
      "##yn": 2844,
      "nov": 2845,
      "imaaraadka": 2846,
      "aada": 2847,
      "dhisan": 2848,
      "macaamiisha": 2849,
      "##meen": 2850,
      "##aari": 2851,
      "##tana": 2852,
      "dibna": 2853,
      "waxyeel": 2854,
      "mustaqbalka": 2855,
      "shirkii": 2856,
      "qaataan": 2857,
      "##iv": 2858,
      "markay": 2859,
      "how": 2860,
      "farans": 2861,
      "qoyska": 2862,
      "filan": 2863,
      "joogo": 2864,
      "suurta": 2865,
      "##ite": 2866,
      "noqdaan": 2867,
      "furan": 2868,
      "##igoo": 2869,
      "sanadkan": 2870,
      "hubka": 2871,
      "##aana": 2872,
      "wat": 2873,
      "waaf": 2874,
      "##gelin": 2875,
      "kulul": 2876,
      "naqshad": 2877,
      "carruurta": 2878,
      "carruur": 2879,
      "##oola": 2880,
      "masuuliyiin": 2881,
      "ey": 2882,
      "##aham": 2883,
      "lagama": 2884,
      "##own": 2885,
      "##doonka": 2886,
      "arki": 2887,
      "eur": 2888,
      "sta": 2889,
      "tah": 2890,
      "tallaab": 2891,
      "weliba": 2892,
      "baadh": 2893,
      "tv": 2894,
      "sawirka": 2895,
      "##kiin": 2896,
      "sugnaa": 2897,
      "##eysiga": 2898,
      "macalin": 2899,
      "horeysay": 2900,
      "burco": 2901,
      "barre": 2902,
      "##aayey": 2903,
      "##kay": 2904,
      "qaraxa": 2905,
      "maxkamada": 2906,
      "gaashaan": 2907,
      "kayd": 2908,
      "hooyo": 2909,
      "dhigan": 2910,
      "tii": 2911,
      "dhaqdhaq": 2912,
      "runtii": 2913,
      "qarx": 2914,
      "israa": 2915,
      "dhuf": 2916,
      "magaaladda": 2917,
      "cor": 2918,
      "premier": 2919,
      "cov": 2920,
      "sum": 2921,
      "ahay": 2922,
      "mood": 2923,
      "musuq": 2924,
      "##ke": 2925,
      "ogaan": 2926,
      "bid": 2927,
      "qabs": 2928,
      "munaasab": 2929,
      "cadaad": 2930,
      "##ray": 2931,
      "##iz": 2932,
      "mam": 2933,
      "##ambaar": 2934,
      "barbar": 2935,
      "tiri": 2936,
      "##eysi": 2937,
      "wafdi": 2938,
      "socdaan": 2939,
      "qaba": 2940,
      "dhir": 2941,
      "kahor": 2942,
      "pe": 2943,
      "xaash": 2944,
      "abaab": 2945,
      "hotel": 2946,
      "miy": 2947,
      "gabar": 2948,
      "gad": 2949,
      "##sc": 2950,
      "gudoomiye": 2951,
      "baq": 2952,
      "arrim": 2953,
      "siyaasada": 2954,
      "cuntada": 2955,
      "guri": 2956,
      "faceb": 2957,
      "july": 2958,
      "imtix": 2959,
      "duleedka": 2960,
      "swed": 2961,
      "dhuus": 2962,
      "##din": 2963,
      "##ian": 2964,
      "waxbarasho": 2965,
      "maleeshiy": 2966,
      "june": 2967,
      "safaar": 2968,
      "ehel": 2969,
      "##aadeen": 2970,
      "##jab": 2971,
      "galbeedka": 2972,
      "##naayeen": 2973,
      "arko": 2974,
      "madaxweynihii": 2975,
      "##naga": 2976,
      "masuuliyiinta": 2977,
      "dej": 2978,
      "taageerada": 2979,
      "##elle": 2980,
      "ak": 2981,
      "xuquuqda": 2982,
      "odayaasha": 2983,
      "waalid": 2984,
      "##aahid": 2985,
      "lum": 2986,
      "dhaqdhaqaaq": 2987,
      "halkii": 2988,
      "shiikh": 2989,
      "waayay": 2990,
      "say": 2991,
      "markuu": 2992,
      "agaasim": 2993,
      "geb": 2994,
      "gaaro": 2995,
      "this": 2996,
      "##ashiid": 2997,
      "gaaraya": 2998,
      "29": 2999,
      "khilaafka": 3000,
      "arrimo": 3001,
      "fran": 3002,
      "baraka": 3003,
      "ganacsatada": 3004,
      "meesh": 3005,
      "xiga": 3006,
      "horseed": 3007,
      "##eyaasha": 3008,
      "waqooyiga": 3009,
      "dhaxeeya": 3010,
      "covid": 3011,
      "yeeshee": 3012,
      "nac": 3013,
      "##adeeda": 3014,
      "badh": 3015,
      "garaac": 3016,
      "##igaa": 3017,
      "muslimiinta": 3018,
      "tu": 3019,
      "ballaaran": 3020,
      "maqan": 3021,
      "april": 3022,
      "bannaan": 3023,
      "keeni": 3024,
      "shaqeeyaan": 3025,
      "champ": 3026,
      "salaad": 3027,
      "isticmaali": 3028,
      "uc": 3029,
      "xagga": 3030,
      "riix": 3031,
      "##shi": 3032,
      "joogaan": 3033,
      "##uulka": 3034,
      "daaf": 3035,
      "##ye": 3036,
      "kiis": 3037,
      "talyaaniga": 3038,
      "ic": 3039,
      "##kiisii": 3040,
      "##eyna": 3041,
      "spain": 3042,
      "koron": 3043,
      "##oole": 3044,
      "kaash": 3045,
      "##tarka": 3046,
      "birta": 3047,
      "tarta": 3048,
      "abd": 3049,
      "##eeys": 3050,
      "dumar": 3051,
      "booliiska": 3052,
      "raxmaan": 3053,
      "facebook": 3054,
      "##illa": 3055,
      "shub": 3056,
      "##gaarka": 3057,
      "pol": 3058,
      "waar": 3059,
      "iyag": 3060,
      "horjeed": 3061,
      "nagu": 3062,
      "mashaar": 3063,
      "liiska": 3064,
      "halis": 3065,
      "##ate": 3066,
      "too": 3067,
      "##iyadeed": 3068,
      "saari": 3069,
      "##dhex": 3070,
      "jow": 3071,
      "##nayd": 3072,
      "kob": 3073,
      "caalami": 3074,
      "madaxweynuhu": 3075,
      "waraab": 3076,
      "shish": 3077,
      "kir": 3078,
      "khaat": 3079,
      "##aadhan": 3080,
      "gaartay": 3081,
      "daha": 3082,
      "rooble": 3083,
      "##ni": 3084,
      "dayac": 3085,
      "xooggan": 3086,
      "lib": 3087,
      "isbeddel": 3088,
      "cur": 3089,
      "muuqda": 3090,
      "qoran": 3091,
      "febr": 3092,
      "##adeen": 3093,
      "##und": 3094,
      "joogay": 3095,
      "jowhar": 3096,
      "danbe": 3097,
      "maalga": 3098,
      "mujaahid": 3099,
      "lo": 3100,
      "dalkaas": 3101,
      "sept": 3102,
      "xubin": 3103,
      "##sal": 3104,
      "tak": 3105,
      "dabiic": 3106,
      "muhiimsan": 3107,
      "##aro": 3108,
      "todobaad": 3109,
      "rakib": 3110,
      "laabtay": 3111,
      "safiirka": 3112,
      "40": 3113,
      "macluumaadka": 3114,
      "yaa": 3115,
      "xaqii": 3116,
      "tw": 3117,
      "kic": 3118,
      "##ibka": 3119,
      "wakiilada": 3120,
      "kharash": 3121,
      "iskaashiga": 3122,
      "##ome": 3123,
      "sin": 3124,
      "##war": 3125,
      "abuu": 3126,
      "champion": 3127,
      "muuqaalka": 3128,
      "wadaa": 3129,
      "baas": 3130,
      "##same": 3131,
      "##dig": 3132,
      "##istan": 3133,
      "dhalinyaro": 3134,
      "allah": 3135,
      "awgeed": 3136,
      "mashaariic": 3137,
      "imaanaya": 3138,
      "mohamed": 3139,
      "jid": 3140,
      "doonaya": 3141,
      "tayo": 3142,
      "garowe": 3143,
      "##itir": 3144,
      "hadh": 3145,
      "qatar": 3146,
      "31": 3147,
      "fiid": 3148,
      "sharax": 3149,
      "gudbin": 3150,
      "dhinacyada": 3151,
      "iisal": 3152,
      "qaato": 3153,
      "beeraha": 3154,
      "##bac": 3155,
      "ragga": 3156,
      "gaarsii": 3157,
      "##koodu": 3158,
      "qorshe": 3159,
      "kaar": 3160,
      "magaalo": 3161,
      "##dhiga": 3162,
      "##eysto": 3163,
      "md": 3164,
      "##eega": 3165,
      "dalx": 3166,
      "hadlayay": 3167,
      "sag": 3168,
      "walaac": 3169,
      "dileen": 3170,
      "##gud": 3171,
      "xarum": 3172,
      "ababa": 3173,
      "kaalinta": 3174,
      "##ahaas": 3175,
      "##eyno": 3176,
      "muhiimka": 3177,
      "horm": 3178,
      "##ika": 3179,
      "oga": 3180,
      "bishan": 3181,
      "hawlaha": 3182,
      "macaan": 3183,
      "sweden": 3184,
      "jirey": 3185,
      "##igaas": 3186,
      "sheegayaa": 3187,
      "aheyn": 3188,
      "##kht": 3189,
      "ayaad": 3190,
      "dooran": 3191,
      "##eyre": 3192,
      "waddan": 3193,
      "inaysan": 3194,
      "##way": 3195,
      "sand": 3196,
      "riy": 3197,
      "meelo": 3198,
      "augu": 3199,
      "waddanka": 3200,
      "laascaan": 3201,
      "son": 3202,
      "fasax": 3203,
      "dambeeyey": 3204,
      "dhaweeyay": 3205,
      "marayo": 3206,
      "jeediyey": 3207,
      "dher": 3208,
      "cusboon": 3209,
      "lana": 3210,
      "markaad": 3211,
      "baxaya": 3212,
      "noocyada": 3213,
      "cajiib": 3214,
      "sheega": 3215,
      "##aase": 3216,
      "ser": 3217,
      "rabto": 3218,
      "wargeyska": 3219,
      "halkaan": 3220,
      "daar": 3221,
      "waqtig": 3222,
      "##eynayo": 3223,
      "dagaalkii": 3224,
      "hawlgal": 3225,
      "lagula": 3226,
      "mon": 3227,
      "halkaa": 3228,
      "adeegga": 3229,
      "waaxda": 3230,
      "maah": 3231,
      "2011": 3232,
      "you": 3233,
      "muuqata": 3234,
      "sidee": 3235,
      "wadahadal": 3236,
      "ahmed": 3237,
      "prof": 3238,
      "##aaska": 3239,
      "nabadda": 3240,
      "bor": 3241,
      "##za": 3242,
      "isbitaalka": 3243,
      "markaan": 3244,
      "ucid": 3245,
      "hil": 3246,
      "baabuur": 3247,
      "dhinteen": 3248,
      "##eikh": 3249,
      "tirsanaa": 3250,
      "kon": 3251,
      "##waaq": 3252,
      "qaxootiga": 3253,
      "awooda": 3254,
      "##akada": 3255,
      "doll": 3256,
      "yem": 3257,
      "dhabta": 3258,
      "wareegay": 3259,
      "august": 3260,
      "siiyey": 3261,
      "lays": 3262,
      "faransiiska": 3263,
      "odhan": 3264,
      "suldaan": 3265,
      "##ile": 3266,
      "dhexd": 3267,
      "kulamo": 3268,
      "sheikh": 3269,
      "march": 3270,
      "##ern": 3271,
      "ogolaan": 3272,
      "toddobaad": 3273,
      "taleef": 3274,
      "madaxwaynaha": 3275,
      "xanuunka": 3276,
      "##aysiga": 3277,
      "talada": 3278,
      "heshay": 3279,
      "xaqiijin": 3280,
      "waday": 3281,
      "kheyre": 3282,
      "madow": 3283,
      "baxaan": 3284,
      "##aaba": 3285,
      "ummadda": 3286,
      "barakac": 3287,
      "xasil": 3288,
      "##hn": 3289,
      "sa": 3290,
      "kooxo": 3291,
      "hubeysan": 3292,
      "gaareen": 3293,
      "kuxig": 3294,
      "waxgar": 3295,
      "##adaada": 3296,
      "##aamo": 3297,
      "jaraa": 3298,
      "##iirta": 3299,
      "dhibaatooyinka": 3300,
      "bbc": 3301,
      "aga": 3302,
      "octo": 3303,
      "sameeyaan": 3304,
      "##son": 3305,
      "september": 3306,
      "##ice": 3307,
      "sanaag": 3308,
      "khamiis": 3309,
      "naad": 3310,
      "ir": 3311,
      "howlaha": 3312,
      "leen": 3313,
      "##andar": 3314,
      "wadda": 3315,
      "xooga": 3316,
      "laac": 3317,
      "##ial": 3318,
      "##nahay": 3319,
      "hogaanka": 3320,
      "lu": 3321,
      "##ft": 3322,
      "ham": 3323,
      "qabteen": 3324,
      "shahaad": 3325,
      "joogta": 3326,
      "##malka": 3327,
      "laascaanood": 3328,
      "xiiso": 3329,
      "el": 3330,
      "khaatumo": 3331,
      "wakhti": 3332,
      "jih": 3333,
      "##baa": 3334,
      "wata": 3335,
      "internetka": 3336,
      "waxaanay": 3337,
      "xassan": 3338,
      "dhigtay": 3339,
      "addis": 3340,
      "vi": 3341,
      "qiimo": 3342,
      "##aland": 3343,
      "mudd": 3344,
      "dareem": 3345,
      "caanka": 3346,
      "##coon": 3347,
      "dhuusamar": 3348,
      "##wada": 3349,
      "xirfad": 3350,
      "xaashi": 3351,
      "xusuus": 3352,
      "fadlan": 3353,
      "me": 3354,
      "ugan": 3355,
      "dhaweyn": 3356,
      "shak": 3357,
      "##ows": 3358,
      "waxyaabo": 3359,
      "##aasuq": 3360,
      "gaw": 3361,
      "ju": 3362,
      "haysta": 3363,
      "##tional": 3364,
      "hey": 3365,
      "##was": 3366,
      "intaasi": 3367,
      "joojin": 3368,
      "jidh": 3369,
      "taliska": 3370,
      "saxaafadda": 3371,
      "##aani": 3372,
      "##hh": 3373,
      "sacuudiga": 3374,
      "guuleystay": 3375,
      "moosh": 3376,
      "milit": 3377,
      "##adani": 3378,
      "tamarta": 3379,
      "xisbiyada": 3380,
      "shaqaal": 3381,
      "champions": 3382,
      "uganda": 3383,
      "helin": 3384,
      "##adaa": 3385,
      "caf": 3386,
      "webs": 3387,
      "sheeko": 3388,
      "october": 3389,
      "socotay": 3390,
      "bilowday": 3391,
      "midab": 3392,
      "ins": 3393,
      "isra": 3394,
      "##hi": 3395,
      "horeeyay": 3396,
      "inkasta": 3397,
      "idaacadda": 3398,
      "ger": 3399,
      "hadalkiisa": 3400,
      "uuliyiin": 3401,
      "##per": 3402,
      "sanno": 3403,
      "xilliga": 3404,
      "ok": 3405,
      "ben": 3406,
      "danjir": 3407,
      "do": 3408,
      "hargaysa": 3409,
      "dhaqam": 3410,
      "deni": 3411,
      "haysan": 3412,
      "qu": 3413,
      "daryeelka": 3414,
      "qabsoom": 3415,
      "qurx": 3416,
      "dibada": 3417,
      "##aaladda": 3418,
      "dhaceen": 3419,
      "ila": 3420,
      "badnaa": 3421,
      "##gaduud": 3422,
      "galka": 3423,
      "00": 3424,
      "dhalatay": 3425,
      "iim": 3426,
      "socoto": 3427,
      "##eystir": 3428,
      "dhuusamareeb": 3429,
      "##jiga": 3430,
      "sirdoonka": 3431,
      "yeesheen": 3432,
      "xaaladaha": 3433,
      "xasuus": 3434,
      "##iyayaasha": 3435,
      "ilo": 3436,
      "qaateen": 3437,
      "sok": 3438,
      "##eynayaa": 3439,
      "sedd": 3440,
      "shirkad": 3441,
      "siyaasiyiinta": 3442,
      "maalmihii": 3443,
      "saad": 3444,
      "kuf": 3445,
      "##aala": 3446,
      "dalal": 3447,
      "karnaa": 3448,
      "tog": 3449,
      "##arada": 3450,
      "codka": 3451,
      "sadex": 3452,
      "##ack": 3453,
      "daraas": 3454,
      "naag": 3455,
      "duqa": 3456,
      "air": 3457,
      "##oodu": 3458,
      "qabaan": 3459,
      "##can": 3460,
      "hormar": 3461,
      "qir": 3462,
      "gabaga": 3463,
      "siyaasad": 3464,
      "tababarka": 3465,
      "##essi": 3466,
      "beled": 3467,
      "wef": 3468,
      "loola": 3469,
      "madasha": 3470,
      "lii": 3471,
      "guryaha": 3472,
      "dusha": 3473,
      "wasmo": 3474,
      "december": 3475,
      "qalin": 3476,
      "leenahay": 3477,
      "##km": 3478,
      "haboon": 3479,
      "suc": 3480,
      "weerarkii": 3481,
      "bash": 3482,
      "##inayaan": 3483,
      "2022": 3484,
      "##dey": 3485,
      "##wo": 3486,
      "goobjoog": 3487,
      "aya": 3488,
      "dibedda": 3489,
      "yemen": 3490,
      "qofku": 3491,
      "socdaal": 3492,
      "##aysi": 3493,
      "yeed": 3494,
      "bol": 3495,
      "baxeen": 3496,
      "maw": 3497,
      "socdaalka": 3498,
      "ph": 3499,
      "saareen": 3500,
      "dhimasho": 3501,
      "comments": 3502,
      "saxda": 3503,
      "walx": 3504,
      "abwaan": 3505,
      "abaabul": 3506,
      "dhageyso": 3507,
      "codsaday": 3508,
      "qanc": 3509,
      "warka": 3510,
      "##ari": 3511,
      "##cas": 3512,
      "qoor": 3513,
      "qofkii": 3514,
      "argagixisada": 3515,
      "heshii": 3516,
      "subax": 3517,
      "guuldar": 3518,
      "maskaxda": 3519,
      "##maa": 3520,
      "dharka": 3521,
      "##jum": 3522,
      "##der": 3523,
      "bri": 3524,
      "caruurta": 3525,
      "dhisay": 3526,
      "##naanka": 3527,
      "maskax": 3528,
      "isbedel": 3529,
      "maxkamad": 3530,
      "macluumaad": 3531,
      "xarakada": 3532,
      "##uuqa": 3533,
      "##eeyaha": 3534,
      "indhaha": 3535,
      "khad": 3536,
      "kacay": 3537,
      "##news": 3538,
      "daal": 3539,
      "shirkada": 3540,
      "##ong": 3541,
      "dhaf": 3542,
      "november": 3543,
      "ift": 3544,
      "ci": 3545,
      "xubnood": 3546,
      "mashruuca": 3547,
      "xildhibaano": 3548,
      "##agaha": 3549,
      "kuur": 3550,
      "guusha": 3551,
      "baxsan": 3552,
      "barlam": 3553,
      "##adi": 3554,
      "khibr": 3555,
      "bl": 3556,
      "january": 3557,
      "shaki": 3558,
      "labadii": 3559,
      "dollar": 3560,
      "wuxu": 3561,
      "bat": 3562,
      "dowladaha": 3563,
      "gabdha": 3564,
      "xidhan": 3565,
      "midoob": 3566,
      "cansh": 3567,
      "hoosta": 3568,
      "kooxdiisa": 3569,
      "deggan": 3570,
      "jarmalka": 3571,
      "tartam": 3572,
      "barnaamijyada": 3573,
      "mararka": 3574,
      "xukunka": 3575,
      "muran": 3576,
      "wr": 3577,
      "awdal": 3578,
      "##ayr": 3579,
      "habeenkii": 3580,
      "baraha": 3581,
      "wakiilka": 3582,
      "carar": 3583,
      "kordhin": 3584,
      "yah": 3585,
      "baahida": 3586,
      "dalbad": 3587,
      "comp": 3588,
      "fulinta": 3589,
      "dhibc": 3590,
      "ingiriis": 3591,
      "jawaabay": 3592,
      "mug": 3593,
      "maj": 3594,
      "galgaduud": 3595,
      "mahadsan": 3596,
      "qeex": 3597,
      "demb": 3598,
      "60": 3599,
      "##uth": 3600,
      "khasaare": 3601,
      "dis": 3602,
      "falan": 3603,
      "siday": 3604,
      "bixiyaan": 3605,
      "baran": 3606,
      "##aheeda": 3607,
      "hak": 3608,
      "##koodii": 3609,
      "dabool": 3610,
      "cirka": 3611,
      "qandar": 3612,
      "jin": 3613,
      "mise": 3614,
      "arrinta": 3615,
      "##lka": 3616,
      "geel": 3617,
      "##mail": 3618,
      "##shan": 3619,
      "##oolaj": 3620,
      "idinka": 3621,
      "hadli": 3622,
      "bartamaha": 3623,
      "wh": 3624,
      "xeerka": 3625,
      "shuruudaha": 3626,
      "##kuna": 3627,
      "off": 3628,
      "madaxwayne": 3629,
      "dheel": 3630,
      "fic": 3631,
      "howlgalka": 3632,
      "badeec": 3633,
      "taa": 3634,
      "kooxd": 3635,
      "rasmiga": 3636,
      "asx": 3637,
      "bixiyo": 3638,
      "doonayaan": 3639,
      "eey": 3640,
      "saddexaad": 3641,
      "gaal": 3642,
      "villa": 3643,
      "qadar": 3644,
      "isha": 3645,
      "dibad": 3646,
      "loona": 3647,
      "hadlaya": 3648,
      "siyaad": 3649,
      "tijaab": 3650,
      "##digu": 3651,
      "safarka": 3652,
      "tiir": 3653,
      "aqoonyahan": 3654,
      "sy": 3655,
      "bilaash": 3656,
      "xigtay": 3657,
      "aadam": 3658,
      "sawiro": 3659,
      "##ez": 3660,
      "jaan": 3661,
      "dhigi": 3662,
      "wayd": 3663,
      "##iidha": 3664,
      "shaqeeyo": 3665,
      "ronal": 3666,
      "uuliyiinta": 3667,
      "magalada": 3668,
      "koofur": 3669,
      "arbac": 3670,
      "joogtada": 3671,
      "##ace": 3672,
      "cadde": 3673,
      "wadooyinka": 3674,
      "gr": 3675,
      "waafaq": 3676,
      "dhigeen": 3677,
      "hirshabeelle": 3678,
      "daacad": 3679,
      "dhawaad": 3680,
      "##kiiba": 3681,
      "ilm": 3682,
      "burcad": 3683,
      "kulankan": 3684,
      "##ooye": 3685,
      "khaliif": 3686,
      "uur": 3687,
      "xisbi": 3688,
      "hoy": 3689,
      "xayaw": 3690,
      "##ilay": 3691,
      "huf": 3692,
      "xooj": 3693,
      "natiijada": 3694,
      "##duub": 3695,
      "##fir": 3696,
      "ciyaaryahan": 3697,
      "xirsi": 3698,
      "cunto": 3699,
      "##tain": 3700,
      "##iro": 3701,
      "##eysta": 3702,
      "##ikada": 3703,
      "qabaa": 3704,
      "##nuuc": 3705,
      "gobal": 3706,
      "qul": 3707,
      "ururada": 3708,
      "england": 3709,
      "colaad": 3710,
      "##nes": 3711,
      "gaaban": 3712,
      "##uuda": 3713,
      "gabadha": 3714,
      "asal": 3715,
      "cada": 3716,
      "hadleen": 3717,
      "kursiga": 3718,
      "sarreeya": 3719,
      "dambeysay": 3720,
      "gro": 3721,
      "hindiya": 3722,
      "##aynayaa": 3723,
      "garaad": 3724,
      "xataa": 3725,
      "timaad": 3726,
      "aag": 3727,
      "xadh": 3728,
      "ge": 3729,
      "##bit": 3730,
      "##xan": 3731,
      "israel": 3732,
      "xarumaha": 3733,
      "that": 3734,
      "##saar": 3735,
      "gudub": 3736,
      "baxo": 3737,
      "til": 3738,
      "qaa": 3739,
      "##az": 3740,
      "warbixinta": 3741,
      "hadlayo": 3742,
      "mashiinka": 3743,
      "##has": 3744,
      "jubaland": 3745,
      "maraykan": 3746,
      "yaabo": 3747,
      "warsame": 3748,
      "waayey": 3749,
      "rayidka": 3750,
      "##adihii": 3751,
      "geli": 3752,
      "dimuq": 3753,
      "em": 3754,
      "xayir": 3755,
      "faysal": 3756,
      "maqaal": 3757,
      "##ld": 3758,
      "maqal": 3759,
      "laahi": 3760,
      "hayn": 3761,
      "##eysatay": 3762,
      "##eem": 3763,
      "##naba": 3764,
      "abaar": 3765,
      "xidhiidhka": 3766,
      "farxad": 3767,
      "khasaaraha": 3768,
      "yaas": 3769,
      "##sl": 3770,
      "fadhiya": 3771,
      "amni": 3772,
      "hadlo": 3773,
      "falanq": 3774,
      "##ahaaga": 3775,
      "yiraahdo": 3776,
      "yaqaano": 3777,
      "codsan": 3778,
      "laguna": 3779,
      "amb": 3780,
      "qaadatay": 3781,
      "yimaadeen": 3782,
      "aadka": 3783,
      "heerk": 3784,
      "keyd": 3785,
      "cayaar": 3786,
      "taasina": 3787,
      "siyaasiyiin": 3788,
      "sud": 3789,
      "dalab": 3790,
      "faal": 3791,
      "booqasho": 3792,
      "waxqabadka": 3793,
      "aqoonta": 3794,
      "biiray": 3795,
      "hod": 3796,
      "xeebaha": 3797,
      "##agal": 3798,
      "danbeeyay": 3799,
      "weeraray": 3800,
      "##oodii": 3801,
      "aalo": 3802,
      "sux": 3803,
      "badani": 3804,
      "xidhiidha": 3805,
      "##ubl": 3806,
      "guuleed": 3807,
      "isul": 3808,
      "kubada": 3809,
      "sababay": 3810,
      "##shii": 3811,
      "##iyaasha": 3812,
      "dhamaystir": 3813,
      "xarun": 3814,
      "jaceyl": 3815,
      "soomaliya": 3816,
      "hantida": 3817,
      "pl": 3818,
      "##aysto": 3819,
      "qabsaday": 3820,
      "shirkan": 3821,
      "eeb": 3822,
      "rajo": 3823,
      "kalana": 3824,
      "heshiiskii": 3825,
      "mamnuuc": 3826,
      "falast": 3827,
      "##ev": 3828,
      "akhri": 3829,
      "with": 3830,
      "maay": 3831,
      "##utub": 3832,
      "wor": 3833,
      "luq": 3834,
      "cadaado": 3835,
      "wariye": 3836,
      "daqiiqo": 3837,
      "yimaada": 3838,
      "##baar": 3839,
      "##bix": 3840,
      "wacy": 3841,
      "##afka": 3842,
      "dhicin": 3843,
      "##aanshaha": 3844,
      "casriga": 3845,
      "biy": 3846,
      "goos": 3847,
      "are": 3848,
      "##sanaa": 3849,
      "iyana": 3850,
      "gor": 3851,
      "gargaar": 3852,
      "jeedin": 3853,
      "markale": 3854,
      "##hur": 3855,
      "afduub": 3856,
      "bart": 3857,
      "nal": 3858,
      "##uux": 3859,
      "gabagab": 3860,
      "suurto": 3861,
      "##irus": 3862,
      "##itter": 3863,
      "wadata": 3864,
      "allaah": 3865,
      "cidda": 3866,
      "koor": 3867,
      "weeraro": 3868,
      "196": 3869,
      "gudiga": 3870,
      "dhexdhex": 3871,
      "dhamaadka": 3872,
      "dakh": 3873,
      "arrintaas": 3874,
      "##ou": 3875,
      "xaj": 3876,
      "##ahaasi": 3877,
      "niyad": 3878,
      "tay": 3879,
      "##lahi": 3880,
      "qoto": 3881,
      "shaqaale": 3882,
      "masaaj": 3883,
      "barak": 3884,
      "ciidamad": 3885,
      "##all": 3886,
      "dhibaatooyin": 3887,
      "liib": 3888,
      "wacan": 3889,
      "haa": 3890,
      "ded": 3891,
      "sn": 3892,
      "horjeeda": 3893,
      "khayr": 3894,
      "hanti": 3895,
      "##oodh": 3896,
      "falastiin": 3897,
      "rabo": 3898,
      "tallaabo": 3899,
      "isgaar": 3900,
      "##ici": 3901,
      "keeno": 3902,
      "dhaliil": 3903,
      "xidhay": 3904,
      "##idii": 3905,
      "jen": 3906,
      "horreysay": 3907,
      "aadanaha": 3908,
      "dhallinyarada": 3909,
      "##kkkkkkkkkkkkkkkk": 3910,
      "bixiyey": 3911,
      "iminka": 3912,
      "balad": 3913,
      "##vent": 3914,
      "dah": 3915,
      "gurig": 3916,
      "faahfaahin": 3917,
      "filayo": 3918,
      "wareega": 3919,
      "wab": 3920,
      "ool": 3921,
      "##eelka": 3922,
      "soomaaliga": 3923,
      "corona": 3924,
      "##ayna": 3925,
      "shaaca": 3926,
      "macquul": 3927,
      "cabdiw": 3928,
      "bos": 3929,
      "heleen": 3930,
      "shidaalka": 3931,
      "maalmaha": 3932,
      "kow": 3933,
      "wakhtiga": 3934,
      "matal": 3935,
      "nala": 3936,
      "ele": 3937,
      "goog": 3938,
      "hoggaanka": 3939,
      "yimaado": 3940,
      "wil": 3941,
      "bangiga": 3942,
      "##hu": 3943,
      "ronaldo": 3944,
      "cambaar": 3945,
      "##haan": 3946,
      "iskugu": 3947,
      "wakht": 3948,
      "##uter": 3949,
      "kaaga": 3950,
      "luuq": 3951,
      "suud": 3952,
      "##lf": 3953,
      "abaalmar": 3954,
      "meyd": 3955,
      "wasiirkii": 3956,
      "taliye": 3957,
      "rabaa": 3958,
      "##eystaan": 3959,
      "farsamada": 3960,
      "doorashadii": 3961,
      "##ington": 3962,
      "##kayga": 3963,
      "furs": 3964,
      "##aakin": 3965,
      "##addiisa": 3966,
      "tol": 3967,
      "norway": 3968,
      "talaab": 3969,
      "##yaa": 3970,
      "qaybo": 3971,
      "ps": 3972,
      "##ica": 3973,
      "toog": 3974,
      "waxaanan": 3975,
      "xiddig": 3976,
      "##zil": 3977,
      "##iyadaha": 3978,
      "waydii": 3979,
      "dekedda": 3980,
      "raysal": 3981,
      "qay": 3982,
      "dhameystir": 3983,
      "##oodi": 3984,
      "tik": 3985,
      "raash": 3986,
      "dhaawacmay": 3987,
      "aus": 3988,
      "dub": 3989,
      "df": 3990,
      "faham": 3991,
      "habar": 3992,
      "dabaal": 3993,
      "qabtaan": 3994,
      "maxaad": 3995,
      "gargaarka": 3996,
      "tegay": 3997,
      "haysto": 3998,
      "shisheeye": 3999,
      "sawirro": 4000,
      "dayactir": 4001,
      "dugsiyada": 4002,
      "tacsi": 4003,
      "wash": 4004,
      "kit": 4005,
      "hogaamin": 4006,
      "somaal": 4007,
      "bra": 4008,
      "qodobka": 4009,
      "hanjab": 4010,
      "##nn": 4011,
      "soomaalidu": 4012,
      "##aanada": 4013,
      "##hooda": 4014,
      "##ks": 4015,
      "iyadoona": 4016,
      "group": 4017,
      "boqortooyada": 4018,
      "##waanka": 4019,
      "farr": 4020,
      "ayad": 4021,
      "##icsan": 4022,
      "aqoonsan": 4023,
      "##nagu": 4024,
      "##anayo": 4025,
      "messi": 4026,
      "somalida": 4027,
      "twitter": 4028,
      "lin": 4029,
      "media": 4030,
      "milatar": 4031,
      "kaalin": 4032,
      "fa": 4033,
      "ogaaday": 4034,
      "##igga": 4035,
      "seddex": 4036,
      "fulin": 4037,
      "##igaan": 4038,
      "met": 4039,
      "xisaabta": 4040,
      "sheego": 4041,
      "booqday": 4042,
      "##eral": 4043,
      "ali": 4044,
      "##iyadii": 4045,
      "mow": 4046,
      "mashquul": 4047,
      "##ted": 4048,
      "february": 4049,
      "##age": 4050,
      "marxal": 4051,
      "cusmaan": 4052,
      "dibl": 4053,
      "gala": 4054,
      "##shahay": 4055,
      "bulsho": 4056,
      "fashil": 4057,
      "saak": 4058,
      "muujiyay": 4059,
      "dareenka": 4060,
      "weydiin": 4061,
      "milan": 4062,
      "qabashada": 4063,
      "maxaab": 4064,
      "ilaaliyo": 4065,
      "waafaqsan": 4066,
      "tidh": 4067,
      "aqr": 4068,
      "maalmo": 4069,
      "gooni": 4070,
      "##ade": 4071,
      "macallin": 4072,
      "##aysta": 4073,
      "##jo": 4074,
      "dhimashada": 4075,
      "miin": 4076,
      "yaryar": 4077,
      "##phone": 4078,
      "world": 4079,
      "iran": 4080,
      "muddada": 4081,
      "fariis": 4082,
      "xerada": 4083,
      "35": 4084,
      "tababaraha": 4085,
      "laakin": 4086,
      "siman": 4087,
      "ugaas": 4088,
      "fool": 4089,
      "##raac": 4090,
      "celiyo": 4091,
      "##weynta": 4092,
      "cabdilaahi": 4093,
      "aragtida": 4094,
      "dhexmaray": 4095,
      "iskuul": 4096,
      "tooska": 4097,
      "contin": 4098,
      "hadashay": 4099,
      "calee": 4100,
      "##aden": 4101,
      "dabad": 4102,
      "gali": 4103,
      "xumo": 4104,
      "abdi": 4105,
      "##oorka": 4106,
      "bud": 4107,
      "writ": 4108,
      "faroole": 4109,
      "qaby": 4110,
      "##oodka": 4111,
      "kuxigeenka": 4112,
      "allaha": 4113,
      "dhiga": 4114,
      "reebo": 4115,
      "##sug": 4116,
      "hayay": 4117,
      "munaasib": 4118,
      "caqab": 4119,
      "cin": 4120,
      "shaqsiy": 4121,
      "##ahaa": 4122,
      "##noolaj": 4123,
      "##iver": 4124,
      "##badan": 4125,
      "dhaco": 4126,
      "naxariistee": 4127,
      "buuxa": 4128,
      "ubax": 4129,
      "wej": 4130,
      "jiraa": 4131,
      "##nimadii": 4132,
      "##aaye": 4133,
      "hirgal": 4134,
      "sl": 4135,
      "cimil": 4136,
      "dhiman": 4137,
      "badanaa": 4138,
      "gabdhaha": 4139,
      "deegaano": 4140,
      "firfir": 4141,
      "baarlamanka": 4142,
      "arkaan": 4143,
      "dalku": 4144,
      "oran": 4145,
      "cl": 4146,
      "ogaado": 4147,
      "jiida": 4148,
      "##keedu": 4149,
      "bogga": 4150,
      "##toob": 4151,
      "diyaarad": 4152,
      "aragti": 4153,
      "wareysi": 4154,
      "caqabad": 4155,
      "##ty": 4156,
      "xildhibaannada": 4157,
      "inaga": 4158,
      "##roid": 4159,
      "ficil": 4160,
      "##wga": 4161,
      "dhaar": 4162,
      "celiyay": 4163,
      "tahr": 4164,
      "khudbad": 4165,
      "hareer": 4166,
      "saxaafada": 4167,
      "ciyaari": 4168,
      "iyaguna": 4169,
      "xadgud": 4170,
      "gelinta": 4171,
      "hubaal": 4172,
      "ukra": 4173,
      "##oosha": 4174,
      "kaf": 4175,
      "neef": 4176,
      "gaariga": 4177,
      "horta": 4178,
      "nabadgel": 4179,
      "taalla": 4180,
      "ne": 4181,
      "degmad": 4182,
      "wehel": 4183,
      "bini": 4184,
      "saamayn": 4185,
      "maxaabiis": 4186,
      "waay": 4187,
      "rax": 4188,
      "nad": 4189,
      "dhamaaday": 4190,
      "##ahaan": 4191,
      "hayso": 4192,
      "dabeec": 4193,
      "masj": 4194,
      "##ung": 4195,
      "sidaasi": 4196,
      "xeebta": 4197,
      "##duuc": 4198,
      "ilaalin": 4199,
      "daaq": 4200,
      "bartilmaam": 4201,
      "dhacaya": 4202,
      "faraha": 4203,
      "ceeb": 4204,
      "horreeyay": 4205,
      "dhirta": 4206,
      "kuman": 4207,
      "##aynayo": 4208,
      "##kasta": 4209,
      "gurmad": 4210,
      "##adoodu": 4211,
      "dhiso": 4212,
      "##eng": 4213,
      "celinta": 4214,
      "laheyn": 4215,
      "umadda": 4216,
      "umada": 4217,
      "murug": 4218,
      "suuriya": 4219,
      "horumarin": 4220,
      "qaadaan": 4221,
      "dambeeya": 4222,
      "##ayaga": 4223,
      "magaciisa": 4224,
      "siyaasi": 4225,
      "iido": 4226,
      "##aystaan": 4227,
      "suxuf": 4228,
      "marnaba": 4229,
      "##baha": 4230,
      "warqad": 4231,
      "saddexda": 4232,
      "marna": 4233,
      "yaan": 4234,
      "res": 4235,
      "xasuuq": 4236,
      "waddooyinka": 4237,
      "isniin": 4238,
      "duk": 4239,
      "500": 4240,
      "baax": 4241,
      "ann": 4242,
      "afgooye": 4243,
      "taf": 4244,
      "walxaha": 4245,
      "##eynaya": 4246,
      "pa": 4247,
      "##eedii": 4248,
      "beegan": 4249,
      "tahriib": 4250,
      "aqal": 4251,
      "##eda": 4252,
      "farsamo": 4253,
      "waraaq": 4254,
      "markiiba": 4255,
      "jawaari": 4256,
      "gacm": 4257,
      "##qu": 4258,
      "##ayska": 4259,
      "warram": 4260,
      "abaaraha": 4261,
      "ig": 4262,
      "sawirada": 4263,
      "##ure": 4264,
      "##sana": 4265,
      "jig": 4266,
      "jiri": 4267,
      "quruxda": 4268,
      "xaflad": 4269,
      "dheere": 4270,
      "culimada": 4271,
      "xabsi": 4272,
      "tageen": 4273,
      "gabay": 4274,
      "##neyd": 4275,
      "shabeellaha": 4276,
      "down": 4277,
      "sayn": 4278,
      "##aawe": 4279,
      "mak": 4280,
      "dowladdu": 4281,
      "rec": 4282,
      "xaafadda": 4283,
      "washington": 4284,
      "dhalay": 4285,
      "shaash": 4286,
      "##inho": 4287,
      "adduun": 4288,
      "diiradda": 4289,
      "rob": 4290,
      "written": 4291,
      "saciid": 4292,
      "geysan": 4293,
      "suug": 4294,
      "vo": 4295,
      "yaasiin": 4296,
      "soomaaliland": 4297,
      "karno": 4298,
      "sol": 4299,
      "baro": 4300,
      "sch": 4301,
      "sidaan": 4302,
      "##fi": 4303,
      "google": 4304,
      "erit": 4305,
      "##iraan": 4306,
      "kuraas": 4307,
      "calaamad": 4308,
      "sababo": 4309,
      "198": 4310,
      "android": 4311,
      "reading": 4312,
      "state": 4313,
      "abuurka": 4314,
      "afjar": 4315,
      "##ishanka": 4316,
      "##ps": 4317,
      "isbad": 4318,
      "ukraine": 4319,
      "qaal": 4320,
      "##ware": 4321,
      "kax": 4322,
      "midna": 4323,
      "sheegin": 4324,
      "dabiiciga": 4325,
      "yeeray": 4326,
      "xoojinta": 4327,
      "talin": 4328,
      "dhaawacmeen": 4329,
      "qeybaha": 4330,
      "sheegey": 4331,
      "qiyaastii": 4332,
      "dherer": 4333,
      "ciyaaro": 4334,
      "saleeb": 4335,
      "harge": 4336,
      "##naha": 4337,
      "marar": 4338,
      "wafdiga": 4339,
      "wasiiro": 4340,
      "isgaarsiinta": 4341,
      "##ck": 4342,
      "xaafada": 4343,
      "jilicsan": 4344,
      "oggolaan": 4345,
      "kuugu": 4346,
      "dheeri": 4347,
      "##aheedu": 4348,
      "##ell": 4349,
      "waayeen": 4350,
      "baarista": 4351,
      "balaadhan": 4352,
      "xeel": 4353,
      "##ang": 4354,
      "##igel": 4355,
      "somaliyeed": 4356,
      "adeegsaday": 4357,
      "##ere": 4358,
      "##les": 4359,
      "laamaha": 4360,
      "cabdiweli": 4361,
      "doo": 4362,
      "continue": 4363,
      "riday": 4364,
      "saakay": 4365,
      "mul": 4366,
      "midnimada": 4367,
      "jabh": 4368,
      "##bay": 4369,
      "hawiye": 4370,
      "iskaga": 4371,
      "suudaan": 4372,
      "qalad": 4373,
      "juvent": 4374,
      "munaasabad": 4375,
      "gasho": 4376,
      "maamulada": 4377,
      "##po": 4378,
      "##end": 4379,
      "saxeex": 4380,
      "##sk": 4381,
      "yimaadaan": 4382,
      "waxgaradka": 4383,
      "hargeisa": 4384,
      "ix": 4385,
      "pm": 4386,
      "boqolaal": 4387,
      "agag": 4388,
      "wars": 4389,
      "juventus": 4390,
      "saacadood": 4391,
      "##ise": 4392,
      "furitaanka": 4393,
      "hu": 4394,
      "daraj": 4395,
      "baarlamaan": 4396,
      "##ase": 4397,
      "xuduud": 4398,
      "dum": 4399,
      "adeer": 4400,
      "ilmaha": 4401,
      "jag": 4402,
      "lacagaha": 4403,
      "wakaal": 4404,
      "from": 4405,
      "noqdeen": 4406,
      "xoojin": 4407,
      "##iley": 4408,
      "##vi": 4409,
      "jiif": 4410,
      "##baan": 4411,
      "kheyr": 4412,
      "##eysato": 4413,
      "mahadcel": 4414,
      "muujinaya": 4415,
      "##eysteen": 4416,
      "baabuurta": 4417,
      "ciyaartoyda": 4418,
      "dhacaan": 4419,
      "qod": 4420,
      "##iilka": 4421,
      "igad": 4422,
      "2010": 4423,
      "##eedyo": 4424,
      "britain": 4425,
      "##keenna": 4426,
      "dardar": 4427,
      "nug": 4428,
      "niman": 4429,
      "noqot": 4430,
      "saldhiga": 4431,
      "saxaafadeed": 4432,
      "bilaw": 4433,
      "xadka": 4434,
      "salaam": 4435,
      "qaboo": 4436,
      "jeex": 4437,
      "walig": 4438,
      "##tinimo": 4439,
      "shaaciyay": 4440,
      "##qaadir": 4441,
      "qash": 4442,
      "raali": 4443,
      "ciraaq": 4444,
      "ris": 4445,
      "inuusan": 4446,
      "##diid": 4447,
      "firfircoon": 4448,
      "we": 4449,
      "argagax": 4450,
      "dimuqraad": 4451,
      "bani": 4452,
      "khub": 4453,
      "iphone": 4454,
      "arim": 4455,
      "saamaynta": 4456,
      "##dhow": 4457,
      "ru": 4458,
      "##sp": 4459,
      "##aylka": 4460,
      "austr": 4461,
      "##ford": 4462,
      "mari": 4463,
      "gurm": 4464,
      "ter": 4465,
      "inf": 4466,
      "mob": 4467,
      "ob": 4468,
      "##gaal": 4469,
      "jeedo": 4470,
      "hambalyo": 4471,
      "##qal": 4472,
      "aar": 4473,
      "##ree": 4474,
      "saal": 4475,
      "##dheere": 4476,
      "dagan": 4477,
      "boqolkiiba": 4478,
      "email": 4479,
      "galmada": 4480,
      "bada": 4481,
      "dd": 4482,
      "##mis": 4483,
      "madaxban": 4484,
      "qandaraas": 4485,
      "qaadista": 4486,
      "laaban": 4487,
      "tuh": 4488,
      "neb": 4489,
      "france": 4490,
      "ciq": 4491,
      "kobc": 4492,
      "weeye": 4493,
      "##enc": 4494,
      "gant": 4495,
      "ogaden": 4496,
      "sport": 4497,
      "digay": 4498,
      "dahab": 4499,
      "abuuray": 4500,
      "cadaalad": 4501,
      "ciyaareedkan": 4502,
      "fariin": 4503,
      "aragto": 4504,
      "xaadir": 4505,
      "aaddan": 4506,
      "daraad": 4507,
      "macalim": 4508,
      "galabta": 4509,
      "##aati": 4510,
      "brazil": 4511,
      "##ight": 4512,
      "intaan": 4513,
      "ahlu": 4514,
      "guurka": 4515,
      "jidka": 4516,
      "aqoonsiga": 4517,
      "tala": 4518,
      "ducaale": 4519,
      "jirtaa": 4520,
      "dalbaday": 4521,
      "qeybo": 4522,
      "##aawo": 4523,
      "bank": 4524,
      "##aysteen": 4525,
      "xusan": 4526,
      "45": 4527,
      "salaan": 4528,
      "dagaalyahan": 4529,
      "##alaysan": 4530,
      "##igaasi": 4531,
      "waddo": 4532,
      "##ula": 4533,
      "ayadoo": 4534,
      "##wad": 4535,
      "furmay": 4536,
      "##shu": 4537,
      "bartay": 4538,
      "khalad": 4539,
      "##load": 4540,
      "erey": 4541,
      "garsoorka": 4542,
      "adigu": 4543,
      "dabaq": 4544,
      "isticmaalaa": 4545,
      "cig": 4546,
      "##rea": 4547,
      "codsiga": 4548,
      "cabdis": 4549,
      "mustaf": 4550,
      "ceer": 4551,
      "danta": 4552,
      "euro": 4553,
      "khus": 4554,
      "laheyd": 4555,
      "sudan": 4556,
      "daacish": 4557,
      "dhadh": 4558,
      "per": 4559,
      "posted": 4560,
      "apple": 4561,
      "taaban": 4562,
      "##maya": 4563,
      "jas": 4564,
      "##ira": 4565,
      "weyne": 4566,
      "goolka": 4567,
      "hawlgalka": 4568,
      "guddida": 4569,
      "publ": 4570,
      "unug": 4571,
      "mab": 4572,
      "##me": 4573,
      "akhris": 4574,
      "yeesho": 4575,
      "mustaqbal": 4576,
      "wakiillada": 4577,
      "tababare": 4578,
      "marwo": 4579,
      "llaahi": 4580,
      "dalxiiska": 4581,
      "os": 4582,
      "tacl": 4583,
      "up": 4584,
      "guulaystay": 4585,
      "waanu": 4586,
      "beledweyne": 4587,
      "sahlan": 4588,
      "##dog": 4589,
      "xagaaga": 4590,
      "yada": 4591,
      "kusii": 4592,
      "raaciyay": 4593,
      "taageerayaasha": 4594,
      "hubiyo": 4595,
      "tot": 4596,
      "laha": 4597,
      "maro": 4598,
      "dambayn": 4599,
      "kooxood": 4600,
      "cida": 4601,
      "##mm": 4602,
      "suurtagal": 4603,
      "dhalan": 4604,
      "farsha": 4605,
      "##ale": 4606,
      "musha": 4607,
      "buun": 4608,
      "muuqan": 4609,
      "looma": 4610,
      "qall": 4611,
      "saleebaan": 4612,
      "ujeedada": 4613,
      "univer": 4614,
      "boolis": 4615,
      "mor": 4616,
      "ninkan": 4617,
      "shabeelaha": 4618,
      "asc": 4619,
      "bixiso": 4620,
      "gabi": 4621,
      "##iiga": 4622,
      "idinku": 4623,
      "maarmaan": 4624,
      "canshuur": 4625,
      "##aynin": 4626,
      "saliid": 4627,
      "yeeshaan": 4628,
      "diidan": 4629,
      "ind": 4630,
      "buuhood": 4631,
      "maql": 4632,
      "naadiga": 4633,
      "##eerka": 4634,
      "your": 4635,
      "hadaf": 4636,
      "##badda": 4637,
      "##eenna": 4638,
      "qabatay": 4639,
      "##use": 4640,
      "xilligii": 4641,
      "shaqsi": 4642,
      "hayaa": 4643,
      "wiilka": 4644,
      "dambeyntii": 4645,
      "hormuud": 4646,
      "dard": 4647,
      "oog": 4648,
      "197": 4649,
      "qm": 4650,
      "maadd": 4651,
      "##aarida": 4652,
      "##dhac": 4653,
      "kalsooni": 4654,
      "barlamaanka": 4655,
      "cayaaraha": 4656,
      "saxaf": 4657,
      "qorsha": 4658,
      "dhiska": 4659,
      "gaadho": 4660,
      "website": 4661,
      "gaadhi": 4662,
      "dhibcood": 4663,
      "garabka": 4664,
      "dacwad": 4665,
      "bashiir": 4666,
      "noocan": 4667,
      "buuhoodle": 4668,
      "##neyn": 4669,
      "goobo": 4670,
      "cirro": 4671,
      "salaysan": 4672,
      "fek": 4673,
      "qarn": 4674,
      "##aashii": 4675,
      "##lion": 4676,
      "qos": 4677,
      "cabdirashiid": 4678,
      "oon": 4679,
      "dareer": 4680,
      "xariir": 4681,
      "muuqday": 4682,
      "80": 4683,
      "heerkulka": 4684,
      "##virus": 4685,
      "##vid": 4686,
      "ciidammada": 4687,
      "hogaaminayo": 4688,
      "isaaq": 4689,
      "##giisa": 4690,
      "saaraan": 4691,
      "nisa": 4692,
      "90": 4693,
      "##eria": 4694,
      "##antay": 4695,
      "saldhigga": 4696,
      "##ital": 4697,
      "waraabe": 4698,
      "##dahay": 4699,
      "iigu": 4700,
      "six": 4701,
      "##sanayo": 4702,
      "xadd": 4703,
      "wasiirrada": 4704,
      "jeb": 4705,
      "##eynin": 4706,
      "safiir": 4707,
      "jiid": 4708,
      "deegaannada": 4709,
      "federalka": 4710,
      "##ick": 4711,
      "##arta": 4712,
      "dega": 4713,
      "qolka": 4714,
      "gebi": 4715,
      "beesh": 4716,
      "##tal": 4717,
      "##aso": 4718,
      "##ily": 4719,
      "##owday": 4720,
      "markab": 4721,
      "ul": 4722,
      "doolar": 4723,
      "isa": 4724,
      "##aantii": 4725,
      "ub": 4726,
      "digniin": 4727,
      "jaamacada": 4728,
      "xoolo": 4729,
      "##kor": 4730,
      "saxiixa": 4731,
      "yus": 4732,
      "##adiisu": 4733,
      "##aanad": 4734,
      "safaaradda": 4735,
      "isagoona": 4736,
      "##ja": 4737,
      "##eedyada": 4738,
      "siiyaan": 4739,
      "dhaawaca": 4740,
      "federaal": 4741,
      "seex": 4742,
      "khibrad": 4743,
      "korontada": 4744,
      "jad": 4745,
      "dagaalanka": 4746,
      "wajah": 4747,
      "kuleyl": 4748,
      "dabka": 4749,
      "helayo": 4750,
      "rar": 4751,
      "baak": 4752,
      "waab": 4753,
      "qaan": 4754,
      "cilmiga": 4755,
      "##iisay": 4756,
      "khayre": 4757,
      "##celin": 4758,
      "arkaa": 4759,
      "saameynta": 4760,
      "dhaqdhaqaaqa": 4761,
      "tartii": 4762,
      "jigjiga": 4763,
      "wareegeen": 4764,
      "qaadka": 4765,
      "##isti": 4766,
      "32": 4767,
      "muda": 4768,
      "kay": 4769,
      "naas": 4770,
      "##onald": 4771,
      "xaqa": 4772,
      "maraakii": 4773,
      "dagaallam": 4774,
      "hogaamiyaha": 4775,
      "sheegi": 4776,
      "muraay": 4777,
      "wajahan": 4778,
      "geelle": 4779,
      "01": 4780,
      "70": 4781,
      "fl": 4782,
      "red": 4783,
      "aduun": 4784,
      "cayn": 4785,
      "wajahay": 4786,
      "amray": 4787,
      "wareegtay": 4788,
      "ilka": 4789,
      "salka": 4790,
      "baal": 4791,
      "saq": 4792,
      "##aadaha": 4793,
      "gudahood": 4794,
      "illaah": 4795,
      "adeega": 4796,
      "waxbarash": 4797,
      "maraakiib": 4798,
      "##aysaan": 4799,
      "caqli": 4800,
      "koror": 4801,
      "baxdo": 4802,
      "hortagga": 4803,
      "##amka": 4804,
      "astaamaha": 4805,
      "qaraxyo": 4806,
      "abr": 4807,
      "kamida": 4808,
      "##xanka": 4809,
      "##aamada": 4810,
      "labadan": 4811,
      "degmo": 4812,
      "##aarada": 4813,
      "john": 4814,
      "xaga": 4815,
      "xorr": 4816,
      "kalsoonida": 4817,
      "laacib": 4818,
      "dhiibay": 4819,
      "tartiib": 4820,
      "mp": 4821,
      "tooga": 4822,
      "beegsaday": 4823,
      "hodan": 4824,
      "welig": 4825,
      "##aynaya": 4826,
      "2009": 4827,
      "snm": 4828,
      "good": 4829,
      "dooda": 4830,
      "ver": 4831,
      "free": 4832,
      "##aysatay": 4833,
      "baay": 4834,
      "muuqato": 4835,
      "##ayaashii": 4836,
      "aragtid": 4837,
      "raaxo": 4838,
      "##ihin": 4839,
      "qurba": 4840,
      "##fadh": 4841,
      "##alia": 4842,
      "boob": 4843,
      "joojiyo": 4844,
      "ayaanu": 4845,
      "ogeyn": 4846,
      "daafaca": 4847,
      "##nab": 4848,
      "lamaan": 4849,
      "ixtir": 4850,
      "qaaradda": 4851,
      "300": 4852,
      "xafiiskiisa": 4853,
      "land": 4854,
      "xidiga": 4855,
      "xabad": 4856,
      "kastoo": 4857,
      "##outi": 4858,
      "cuna": 4859,
      "##siiyay": 4860,
      "##sheeg": 4861,
      "canada": 4862,
      "imtixaanka": 4863,
      "mareykan": 4864,
      "##deed": 4865,
      "sucuudiga": 4866,
      "iibsiga": 4867,
      "download": 4868,
      "watay": 4869,
      "##ass": 4870,
      "saleysan": 4871,
      "halgan": 4872,
      "donald": 4873,
      "dhamaantood": 4874,
      "dhe": 4875,
      "##erland": 4876,
      "soft": 4877,
      "ip": 4878,
      "##qif": 4879,
      "dejinta": 4880,
      "##ahi": 4881,
      "dalkooda": 4882,
      "aannu": 4883,
      "meh": 4884,
      "keny": 4885,
      "dhexdhexaad": 4886,
      "##va": 4887,
      "##ini": 4888,
      "labadaba": 4889,
      "wakhtig": 4890,
      "dhammaystir": 4891,
      "scw": 4892,
      "aroos": 4893,
      "##ilka": 4894,
      "intooda": 4895,
      "ikht": 4896,
      "mog": 4897,
      "xiisaha": 4898,
      "inaanu": 4899,
      "noocyo": 4900,
      "lee": 4901,
      "dayn": 4902,
      "xaafadaha": 4903,
      "##anaha": 4904,
      "hoggaamin": 4905,
      "dhah": 4906,
      "##gen": 4907,
      "baladweyne": 4908,
      "paris": 4909,
      "doonayaa": 4910,
      "garoon": 4911,
      "dhaadh": 4912,
      "adigoo": 4913,
      "musharaxiinta": 4914,
      "interna": 4915,
      "##sade": 4916,
      "ikhtiyaar": 4917,
      "agagaarka": 4918,
      "bary": 4919,
      "home": 4920,
      "##lus": 4921,
      "south": 4922,
      "##keedii": 4923,
      "doorto": 4924,
      "ilaalada": 4925,
      "waqtigii": 4926,
      "abdul": 4927,
      "##ladda": 4928,
      "##ola": 4929,
      "qori": 4930,
      "##ies": 4931,
      "hirshabelle": 4932,
      "hooseeya": 4933,
      "xasill": 4934,
      "maarso": 4935,
      "naaf": 4936,
      "tagaan": 4937,
      "maqlay": 4938,
      "waxaase": 4939,
      "nabada": 4940,
      "bus": 4941,
      "##qa": 4942,
      "qorshay": 4943,
      "magacyada": 4944,
      "doorka": 4945,
      "##tom": 4946,
      "indho": 4947,
      "wasiirku": 4948,
      "##ame": 4949,
      "amaah": 4950,
      "wararkii": 4951,
      "kursi": 4952,
      "##ence": 4953,
      "##kada": 4954,
      "##ixiinta": 4955,
      "janaayo": 4956,
      "martay": 4957,
      "dariiq": 4958,
      "gurmadka": 4959,
      "barashada": 4960,
      "qaadir": 4961,
      "##oonida": 4962,
      "jece": 4963,
      "ogyahay": 4964,
      "kum": 4965,
      "xaar": 4966,
      "hambaly": 4967,
      "##ear": 4968,
      "qars": 4969,
      "halista": 4970,
      "##waa": 4971,
      "deyn": 4972,
      "boorama": 4973,
      "##uusan": 4974,
      "od": 4975,
      "taala": 4976,
      "waxtar": 4977,
      "ganaax": 4978,
      "iibka": 4979,
      "qabsan": 4980,
      "berri": 4981,
      "hadaan": 4982,
      "bakool": 4983,
      "laal": 4984,
      "2023": 4985,
      "shire": 4986,
      "dhawaaqday": 4987,
      "aakh": 4988,
      "gole": 4989,
      "abiy": 4990,
      "hoggaan": 4991,
      "runta": 4992,
      "##tions": 4993,
      "iftiinka": 4994,
      "miisaanka": 4995,
      "laka": 4996,
      "adkaa": 4997,
      "jasiir": 4998,
      "sagaal": 4999,
      "mooy": 5000,
      "doonnaa": 5001,
      "rep": 5002,
      "##ory": 5003,
      "del": 5004,
      "ciyaareedka": 5005,
      "wadi": 5006,
      "mooshin": 5007,
      "fag": 5008,
      "aamus": 5009,
      "rabsh": 5010,
      "kulmeen": 5011,
      "##goys": 5012,
      "sannadkan": 5013,
      "sur": 5014,
      "##shaq": 5015,
      "mod": 5016,
      "faq": 5017,
      "##anayaan": 5018,
      "jsl": 5019,
      "jaaliyada": 5020,
      "juun": 5021,
      "mashaariicda": 5022,
      "dhaqaal": 5023,
      "socdeen": 5024,
      "##siiyo": 5025,
      "##heeda": 5026,
      "madaaf": 5027,
      "goyn": 5028,
      "general": 5029,
      "##iyaal": 5030,
      "gawaarida": 5031,
      "kall": 5032,
      "comm": 5033,
      "anigoo": 5034,
      "shuruud": 5035,
      "qub": 5036,
      "international": 5037,
      "coronavirus": 5038,
      "her": 5039,
      "sharafta": 5040,
      "dabadeed": 5041,
      "dalkiisa": 5042,
      "xamaas": 5043,
      "ramadaan": 5044,
      "##olog": 5045,
      "geedi": 5046,
      "xoogaa": 5047,
      "maleeshiyaadka": 5048,
      "port": 5049,
      "xusid": 5050,
      "jib": 5051,
      "faahin": 5052,
      "duqeyn": 5053,
      "arrintaasi": 5054,
      "##ky": 5055,
      "hoggaaminayo": 5056,
      "xarunt": 5057,
      "yimi": 5058,
      "maalgashiga": 5059,
      "##dhigga": 5060,
      "wadeen": 5061,
      "waxaynu": 5062,
      "admin": 5063,
      "val": 5064,
      "cat": 5065,
      "isgoys": 5066,
      "aasaasiga": 5067,
      "08": 5068,
      "dagaalada": 5069,
      "##noolajiyada": 5070,
      "midig": 5071,
      "jeclaan": 5072,
      "geeyay": 5073,
      "dabcan": 5074,
      "07": 5075,
      "sayl": 5076,
      "bilaabeen": 5077,
      "filimka": 5078,
      "guurtida": 5079,
      "khudb": 5080,
      "imanaya": 5081,
      "fanaan": 5082,
      "kulmaan": 5083,
      "afl": 5084,
      "doonayay": 5085,
      "maxal": 5086,
      "gabiley": 5087,
      "abu": 5088,
      "##aadi": 5089,
      "fadhiis": 5090,
      "##hac": 5091,
      "luul": 5092,
      "gaaraan": 5093,
      "furo": 5094,
      "aasaasay": 5095,
      "raadinta": 5096,
      "cadaadis": 5097,
      "indi": 5098,
      "fo": 5099,
      "cap": 5100,
      "06": 5101,
      "##sia": 5102,
      "midabka": 5103,
      "qodobada": 5104,
      "##eej": 5105,
      "lacago": 5106,
      "software": 5107,
      "##dooda": 5108,
      "waax": 5109,
      "dfs": 5110,
      "tagi": 5111,
      "dhoob": 5112,
      "geysteen": 5113,
      "eebe": 5114,
      "askarta": 5115,
      "##uy": 5116,
      "daayo": 5117,
      "gaystay": 5118,
      "laam": 5119,
      "##iintu": 5120,
      "murasha": 5121,
      "madaafiic": 5122,
      "haystaan": 5123,
      "09": 5124,
      "gog": 5125,
      "caansan": 5126,
      "bey": 5127,
      "##ff": 5128,
      "tuulada": 5129,
      "kari": 5130,
      "amer": 5131,
      "wakaaladda": 5132,
      "labad": 5133,
      "xilligan": 5134,
      "xagaag": 5135,
      "dalkan": 5136,
      "##ven": 5137,
      "tidhi": 5138,
      "dhuftay": 5139,
      "usb": 5140,
      "imtixaan": 5141,
      "feker": 5142,
      "khatarta": 5143,
      "hadaad": 5144,
      "xaaskiisa": 5145,
      "galaya": 5146,
      "##iimo": 5147,
      "##aajir": 5148,
      "jaray": 5149,
      "midoobey": 5150,
      "cimilada": 5151,
      "qaybgalay": 5152,
      "gus": 5153,
      "balaaran": 5154,
      "xiddigaha": 5155,
      "laanta": 5156,
      "falal": 5157,
      "dhigaya": 5158,
      "iidooyinka": 5159,
      "rashiid": 5160,
      "muwaadiniinta": 5161,
      "wind": 5162,
      "saadaal": 5163,
      "isbitaal": 5164,
      "xigta": 5165,
      "daraw": 5166,
      "don": 5167,
      "halb": 5168,
      "eritrea": 5169,
      "aagga": 5170,
      "kartid": 5171,
      "maqaarka": 5172,
      "himil": 5173,
      "dhammaantood": 5174,
      "yusuf": 5175,
      "qaadashada": 5176,
      "##ilo": 5177,
      "bukaan": 5178,
      "togdheer": 5179,
      "who": 5180,
      "xakamaynta": 5181,
      "dhakhso": 5182,
      "fata": 5183,
      "dhimatay": 5184,
      "ko": 5185,
      "hortago": 5186,
      "shahaadada": 5187,
      "xall": 5188,
      "arintan": 5189,
      "##aatii": 5190,
      "musuqm": 5191,
      "##akar": 5192,
      "##ili": 5193,
      "oktoob": 5194,
      "waddamada": 5195,
      "hagaag": 5196,
      "##bul": 5197,
      "kalluum": 5198,
      "markaasna": 5199,
      "##pe": 5200,
      "diblom": 5201,
      "ogaadeen": 5202,
      "cisho": 5203,
      "ayeey": 5204,
      "sanduuqa": 5205,
      "##xo": 5206,
      "fashilm": 5207,
      "shabakada": 5208,
      "aankii": 5209,
      "##idan": 5210,
      "raacay": 5211,
      "magan": 5212,
      "helitaanka": 5213,
      "02": 5214,
      "awoodi": 5215,
      "meer": 5216,
      "qaadato": 5217,
      "mitir": 5218,
      "geerida": 5219,
      "ahaantii": 5220,
      "saacado": 5221,
      "wareegga": 5222,
      "akhriso": 5223,
      "banaanbax": 5224,
      "lax": 5225,
      "noogu": 5226,
      "shakhsiy": 5227,
      "xaqiijiyey": 5228,
      "dev": 5229,
      "islaamiga": 5230,
      "aqb": 5231,
      "##kiina": 5232,
      "kulamada": 5233,
      "cadaadiska": 5234,
      "jubbada": 5235,
      "beri": 5236,
      "isaguna": 5237,
      "hufan": 5238,
      "##omb": 5239,
      "markasta": 5240,
      "tihiin": 5241,
      "tuub": 5242,
      "qoon": 5243,
      "xukuumaddu": 5244,
      "kiim": 5245,
      "nafaq": 5246,
      "xur": 5247,
      "dhigto": 5248,
      "dagaalo": 5249,
      "qaybgal": 5250,
      "bayaan": 5251,
      "xadgudub": 5252,
      "##leh": 5253,
      "sec": 5254,
      "geliyo": 5255,
      "macd": 5256,
      "##yadu": 5257,
      "maxkam": 5258,
      "nig": 5259,
      "hoggaamiyaha": 5260,
      "dambi": 5261,
      "midda": 5262,
      "maada": 5263,
      "iibsan": 5264,
      "##ootay": 5265,
      "qalb": 5266,
      "gaarin": 5267,
      "##igooda": 5268,
      "##udh": 5269,
      "##aandh": 5270,
      "raag": 5271,
      "york": 5272,
      "culum": 5273,
      "asxaab": 5274,
      "bahda": 5275,
      "sayid": 5276,
      "sababaha": 5277,
      "arg": 5278,
      "tanaas": 5279,
      "rayid": 5280,
      "##ska": 5281,
      "##bah": 5282,
      "khasaaro": 5283,
      "manta": 5284,
      "chr": 5285,
      "cup": 5286,
      "magaaladaasi": 5287,
      "maraykanku": 5288,
      "nugaal": 5289,
      "duulimaad": 5290,
      "##ariga": 5291,
      "##miska": 5292,
      "##sion": 5293,
      "gir": 5294,
      "eebbe": 5295,
      "kaam": 5296,
      "isboor": 5297,
      "madaxtooy": 5298,
      "ololaha": 5299,
      "xumaan": 5300,
      "qulq": 5301,
      "##ota": 5302,
      "##igelin": 5303,
      "diiriye": 5304,
      "fuliyeen": 5305,
      "cabdillaahi": 5306,
      "shirar": 5307,
      "cadow": 5308,
      "udub": 5309,
      "samaynta": 5310,
      "##tidii": 5311,
      "mach": 5312,
      "qaabilay": 5313,
      "wareegto": 5314,
      "fiq": 5315,
      "sareeya": 5316,
      "kuwan": 5317,
      "codsiyada": 5318,
      "##kin": 5319,
      "cabdulaahi": 5320,
      "shacbiga": 5321,
      "mel": 5322,
      "cabdullahi": 5323,
      "kasii": 5324,
      "mashiin": 5325,
      "gaara": 5326,
      "baaritaanka": 5327,
      "uj": 5328,
      "calanka": 5329,
      "wasiiru": 5330,
      "##tiina": 5331,
      "xalka": 5332,
      "##eeshee": 5333,
      "kumanaan": 5334,
      "munaasabadda": 5335,
      "qeybgal": 5336,
      "qaata": 5337,
      "not": 5338,
      "1aad": 5339,
      "talaabo": 5340,
      "iimaan": 5341,
      "dhaxaysa": 5342,
      "mucaarad": 5343,
      "booska": 5344,
      "##lab": 5345,
      "##ie": 5346,
      "noqonaya": 5347,
      "jap": 5348,
      "voa": 5349,
      "musuqmaasuq": 5350,
      "dhaxal": 5351,
      "dhakhaat": 5352,
      "siiso": 5353,
      "##abadan": 5354,
      "dhihi": 5355,
      "lagala": 5356,
      "mudada": 5357,
      "warshad": 5358,
      "barwaaq": 5359,
      "hin": 5360,
      "ahaana": 5361,
      "##iyow": 5362,
      "roon": 5363,
      "qabow": 5364,
      "daabacay": 5365,
      "waramay": 5366,
      "raga": 5367,
      "hadba": 5368,
      "ogaato": 5369,
      "pak": 5370,
      "taageersan": 5371,
      "nag": 5372,
      "hannaanka": 5373,
      "heerarka": 5374,
      "sheegayo": 5375,
      "injin": 5376,
      "calaamadaha": 5377,
      "casuum": 5378,
      "caqabadaha": 5379,
      "kujir": 5380,
      "03": 5381,
      "mujaahidiinta": 5382,
      "qorrax": 5383,
      "jees": 5384,
      "our": 5385,
      "saalax": 5386,
      "qarxa": 5387,
      "shakhsi": 5388,
      "ciyaaryahanka": 5389,
      "ajaan": 5390,
      "bixisay": 5391,
      "wararku": 5392,
      "tilmaan": 5393,
      "gudbiyay": 5394,
      "muxuu": 5395,
      "carb": 5396,
      "waddada": 5397,
      "jeceshahay": 5398,
      "oktoobar": 5399,
      "djib": 5400,
      "walaalaha": 5401,
      "weydiiyay": 5402,
      "maleeshiyada": 5403,
      "bayern": 5404,
      "##baal": 5405,
      "diyaaradda": 5406,
      "jaaliyadda": 5407,
      "sannadka": 5408,
      "macm": 5409,
      "liis": 5410,
      "##aano": 5411,
      "04": 5412,
      "sababtay": 5413,
      "hadlayey": 5414,
      "macdanta": 5415,
      "ciidamadii": 5416,
      "bixiya": 5417,
      "tareenka": 5418,
      "##ze": 5419,
      "weeraryahanka": 5420,
      "shuruuc": 5421,
      "xiliga": 5422,
      "qarsoon": 5423,
      "wareejin": 5424,
      "hagaajinta": 5425,
      "##20": 5426,
      "qasab": 5427,
      "cidna": 5428,
      "afarta": 5429,
      "##uubta": 5430,
      "samaysay": 5431,
      "##eera": 5432,
      "##eyaal": 5433,
      "afgar": 5434,
      "hubaysan": 5435,
      "anaga": 5436,
      "##axay": 5437,
      "dhulb": 5438,
      "##casiis": 5439,
      "asalka": 5440,
      "miiska": 5441,
      "##50": 5442,
      "japan": 5443,
      "marxuumka": 5444,
      "maayo": 5445,
      "36": 5446,
      "##aadu": 5447,
      "qalal": 5448,
      "weerarada": 5449,
      "taariikhdu": 5450,
      "jose": 5451,
      "danjire": 5452,
      "qaraxii": 5453,
      "##iyeedka": 5454,
      "heshiisiinta": 5455,
      "##imadii": 5456,
      "inan": 5457,
      "suuqyada": 5458,
      "fursadaha": 5459,
      "haysato": 5460,
      "hana": 5461,
      "kaah": 5462,
      "daayay": 5463,
      "##eyay": 5464,
      "leex": 5465,
      "xawaaraha": 5466,
      "arimo": 5467,
      "galiyay": 5468,
      "keena": 5469,
      "shuc": 5470,
      "dhaliyey": 5471,
      "saxiixay": 5472,
      "##inimo": 5473,
      "waraysi": 5474,
      "lt": 5475,
      "guddoonka": 5476,
      "baaris": 5477,
      "jamhuuriyada": 5478,
      "hadday": 5479,
      "jaamacadaha": 5480,
      "dhaweeyey": 5481,
      "dhaqameed": 5482,
      "celcel": 5483,
      "masiix": 5484,
      "uruur": 5485,
      "kuraasta": 5486,
      "##ahii": 5487,
      "##work": 5488,
      "halkaasoo": 5489,
      "gaba": 5490,
      "diyaarin": 5491,
      "codsi": 5492,
      "cil": 5493,
      "yiraah": 5494,
      "star": 5495,
      "##shir": 5496,
      "caag": 5497,
      "maadama": 5498,
      "baahiyaha": 5499,
      "wasaaradaha": 5500,
      "sunna": 5501,
      "##raan": 5502,
      "##yadooda": 5503,
      "shabakadda": 5504,
      "##wa": 5505,
      "rasuul": 5506,
      "dhismeedka": 5507,
      "wadaad": 5508,
      "maya": 5509,
      "jubba": 5510,
      "hadlin": 5511,
      "##tinimada": 5512,
      "ce": 5513,
      "caga": 5514,
      "cabdulle": 5515,
      "op": 5516,
      "west": 5517,
      "jacaylka": 5518,
      "abo": 5519,
      "inagu": 5520,
      "dhigaan": 5521,
      "murt": 5522,
      "arinta": 5523,
      "iiraan": 5524,
      "qoysas": 5525,
      "maahan": 5526,
      "ste": 5527,
      "dawladaha": 5528,
      "sideed": 5529,
      "tacliinta": 5530,
      "yidhaah": 5531,
      "##eymo": 5532,
      "##istaan": 5533,
      "ri": 5534,
      "codbix": 5535,
      "bilyan": 5536,
      "mursal": 5537,
      "##adiid": 5538,
      "##ope": 5539,
      "dhakhtar": 5540,
      "ciyaaray": 5541,
      "##he": 5542,
      "isticmaala": 5543,
      "maasuq": 5544,
      "##df": 5545,
      "dalban": 5546,
      "horreeya": 5547,
      "casri": 5548,
      "horyaal": 5549,
      "duur": 5550,
      "australia": 5551,
      "qoysaska": 5552,
      "guuleysan": 5553,
      "hassan": 5554,
      "bandhigtay": 5555,
      "dhash": 5556,
      "cib": 5557,
      "qabanayo": 5558,
      "ibrah": 5559,
      "farq": 5560,
      "##iyuhu": 5561,
      "05": 5562,
      "jamaal": 5563,
      "##ated": 5564,
      "danaha": 5565,
      "rabaan": 5566,
      "munich": 5567,
      "nabadoon": 5568,
      "dhiigga": 5569,
      "33": 5570,
      "laguu": 5571,
      "##uqul": 5572,
      "buugaag": 5573,
      "2aad": 5574,
      "ddsi": 5575,
      "##geliyo": 5576,
      "duruuf": 5577,
      "##aysato": 5578,
      "iskaashi": 5579,
      "bartilmaameed": 5580,
      "cusbooneys": 5581,
      "indh": 5582,
      "shay": 5583,
      "djibouti": 5584,
      "khan": 5585,
      "##ido": 5586,
      "qodobo": 5587,
      "cutub": 5588,
      "##keyga": 5589,
      "##kn": 5590,
      "istan": 5591,
      "ciyaara": 5592,
      "mour": 5593,
      "##lad": 5594,
      "cim": 5595,
      "##yadda": 5596,
      "##kum": 5597,
      "fuliyay": 5598,
      "noqotee": 5599,
      "##eeysay": 5600,
      "mushaar": 5601,
      "shaacisay": 5602,
      "##ished": 5603,
      "minnes": 5604,
      "injineer": 5605,
      "shaqooyinka": 5606,
      "shidaal": 5607,
      "##aamin": 5608,
      "badbaadada": 5609,
      "nabi": 5610,
      "hadlaan": 5611,
      "naqshadeynta": 5612,
      "buul": 5613,
      "##iile": 5614,
      "hiil": 5615,
      "dirir": 5616,
      "##mark": 5617,
      "mawduuc": 5618,
      "##urka": 5619,
      "hawsha": 5620,
      "geliyay": 5621,
      "qabad": 5622,
      "##aarij": 5623,
      "hayey": 5624,
      "lugta": 5625,
      "haddaan": 5626,
      "fursado": 5627,
      "##uudi": 5628,
      "dakhliga": 5629,
      "hooyada": 5630,
      "dadaalka": 5631,
      "isbuuc": 5632,
      "cabbir": 5633,
      "kulmi": 5634,
      "sokeeye": 5635,
      "windows": 5636,
      "wadani": 5637,
      "##kac": 5638,
      "xuska": 5639,
      "wadnaha": 5640,
      "2024": 5641,
      "##ago": 5642,
      "qaali": 5643,
      "maareynta": 5644,
      "waramayaa": 5645,
      "##iyuu": 5646,
      "macaamiish": 5647,
      "wasakh": 5648,
      "tec": 5649,
      "horaysay": 5650,
      "bilaabi": 5651,
      "fat": 5652,
      "isticmaalaan": 5653,
      "##aysid": 5654,
      "imika": 5655,
      "totten": 5656,
      "kiiska": 5657,
      "##dogan": 5658,
      "##tiis": 5659,
      "##sanaya": 5660,
      "sanadihii": 5661,
      "quraanka": 5662,
      "##aly": 5663,
      "aasay": 5664,
      "dhabar": 5665,
      "##oj": 5666,
      "##layaasha": 5667,
      "yidhaahdo": 5668,
      "orod": 5669,
      "macnaheedu": 5670,
      "cabdal": 5671,
      "turjum": 5672,
      "isbahay": 5673,
      "lamb": 5674,
      "##kayaga": 5675,
      "warsax": 5676,
      "##haas": 5677,
      "taliyihii": 5678,
      "aqbali": 5679,
      "daqiiqadii": 5680,
      "##eriga": 5681,
      "##lanka": 5682,
      "xann": 5683,
      "kharashka": 5684,
      "##ss": 5685,
      "german": 5686,
      "##ical": 5687,
      "##walba": 5688,
      "gadaal": 5689,
      "ssc": 5690,
      "##umin": 5691,
      "tottenham": 5692,
      "afhayeen": 5693,
      "wehl": 5694,
      "eedeeyey": 5695,
      "dhee": 5696,
      "xaqiijiyeen": 5697,
      "finland": 5698,
      "mucaaridka": 5699,
      "##leyda": 5700,
      "qanacsan": 5701,
      "xariiq": 5702,
      "magacaabi": 5703,
      "dhexdeeda": 5704,
      "farabadan": 5705,
      "##cr": 5706,
      "xukumay": 5707,
      "midkood": 5708,
      "##uma": 5709,
      "reg": 5710,
      "kin": 5711,
      "dirtay": 5712,
      "laabto": 5713,
      "tuuray": 5714,
      "sameyso": 5715,
      "##aduna": 5716,
      "##aynay": 5717,
      "daj": 5718,
      "libaax": 5719,
      "sugidda": 5720,
      "labaatan": 5721,
      "one": 5722,
      "isg": 5723,
      "saarto": 5724,
      "kuwaa": 5725,
      "qarxay": 5726,
      "##press": 5727,
      "dhulbahan": 5728,
      "2008": 5729,
      "iyadu": 5730,
      "##ayaashu": 5731,
      "minnesota": 5732,
      "yeedhay": 5733,
      "qabato": 5734,
      "sameynta": 5735,
      "ayada": 5736,
      "dhacda": 5737,
      "mara": 5738,
      "maqnaa": 5739,
      "gul": 5740,
      "duulista": 5741,
      "quud": 5742,
      "##ico": 5743,
      "dalkeena": 5744,
      "banaanka": 5745,
      "tuk": 5746,
      "horeeyey": 5747,
      "##siyo": 5748,
      "##igeeda": 5749,
      "fadhiga": 5750,
      "saacadaha": 5751,
      "takhas": 5752,
      "##imb": 5753,
      "diblomaas": 5754,
      "##sashada": 5755,
      "dadkaasi": 5756,
      "cabdicasiis": 5757,
      "maalmahan": 5758,
      "duf": 5759,
      "arintaas": 5760,
      "aash": 5761,
      "adoo": 5762,
      "yeelatay": 5763,
      "sameysay": 5764,
      "ummada": 5765,
      "dadweyne": 5766,
      "tub": 5767,
      "##tive": 5768,
      "meeshii": 5769,
      "##yaal": 5770,
      "badd": 5771,
      "##aaca": 5772,
      "##eymaha": 5773,
      "##niinta": 5774,
      "siisay": 5775,
      "dhux": 5776,
      "raal": 5777,
      "but": 5778,
      "raf": 5779,
      "mourinho": 5780,
      "david": 5781,
      "dhuu": 5782,
      "xilal": 5783,
      "##wasaaraha": 5784,
      "meher": 5785,
      "geeyo": 5786,
      "hogaan": 5787,
      "hy": 5788,
      "##eynayaan": 5789,
      "diro": 5790,
      "xaqiiqda": 5791,
      "##eraal": 5792,
      "maaliyada": 5793,
      "lambarka": 5794,
      "alex": 5795,
      "intuu": 5796,
      "gaashaandhigga": 5797,
      "xeerarka": 5798,
      "ognahay": 5799,
      "boqorka": 5800,
      "seb": 5801,
      "saarista": 5802,
      "dareemay": 5803,
      "gooy": 5804,
      "wafd": 5805,
      "##aadan": 5806,
      "raaxada": 5807,
      "qeybgalay": 5808,
      "wareejiyay": 5809,
      "koronto": 5810,
      "##atey": 5811,
      "baahsan": 5812,
      "timaado": 5813,
      "takhasus": 5814,
      "koran": 5815,
      "mahdi": 5816,
      "qoro": 5817,
      "heb": 5818,
      "ganacsato": 5819,
      "jiil": 5820,
      "darrada": 5821,
      "qaldan": 5822,
      "##yl": 5823,
      "##naq": 5824,
      "##teena": 5825,
      "adeegsado": 5826,
      "milatariga": 5827,
      "fatah": 5828,
      "komb": 5829,
      "alla": 5830,
      "##she": 5831,
      "astaan": 5832,
      "sacad": 5833,
      "jimic": 5834,
      "kuwani": 5835,
      "lagana": 5836,
      "arkeen": 5837,
      "##letic": 5838,
      "foor": 5839,
      "##ach": 5840,
      "samaysan": 5841,
      "ahm": 5842,
      "psg": 5843,
      "##ene": 5844,
      "##haha": 5845,
      "##for": 5846,
      "##ooyinkan": 5847,
      "##kmg": 5848,
      "food": 5849,
      "##ws": 5850,
      "taleefan": 5851,
      "masjidka": 5852,
      "xiligii": 5853,
      "##ves": 5854,
      "##ishay": 5855,
      "van": 5856,
      "taqaan": 5857,
      "tanaasul": 5858,
      "cadaaladda": 5859,
      "have": 5860,
      "##ime": 5861,
      "muujiyey": 5862,
      "##ct": 5863,
      "tun": 5864,
      "tiirsan": 5865,
      "xildhibaanka": 5866,
      "sanadkaan": 5867,
      "baaqday": 5868,
      "##pol": 5869,
      "badbaadin": 5870,
      "my": 5871,
      "umm": 5872,
      "dalxiis": 5873,
      "##uqa": 5874,
      "xayawaanka": 5875,
      "##gi": 5876,
      "##qaaday": 5877,
      "##hhhh": 5878,
      "eray": 5879,
      "hubin": 5880,
      "##ney": 5881,
      "network": 5882,
      "saarnaa": 5883,
      "##ike": 5884,
      "dadkan": 5885,
      "dhaawacyo": 5886,
      "shabab": 5887,
      "noolaa": 5888,
      "xambaar": 5889,
      "agab": 5890,
      "insha": 5891,
      "##oosto": 5892,
      "ciidamadda": 5893,
      "musharrax": 5894,
      "dabada": 5895,
      "music": 5896,
      "nuux": 5897,
      "jimcaha": 5898,
      "sheekada": 5899,
      "rug": 5900,
      "##igaaga": 5901,
      "kalfadh": 5902,
      "milat": 5903,
      "##waay": 5904,
      "computer": 5905,
      "duuf": 5906,
      "beerta": 5907,
      "dp": 5908,
      "warbaahin": 5909,
      "cigaal": 5910,
      "##iran": 5911,
      "rumeysan": 5912,
      "kordhinta": 5913,
      "kowaad": 5914,
      "alaabada": 5915,
      "wadatashiga": 5916,
      "som": 5917,
      "bidix": 5918,
      "dawladdu": 5919,
      "sheg": 5920,
      "nadaaf": 5921,
      "tat": 5922,
      "mooshinka": 5923,
      "samir": 5924,
      "uguna": 5925,
      "ek": 5926,
      "shanta": 5927,
      "##eysey": 5928,
      "published": 5929,
      "bilaaban": 5930,
      "taga": 5931,
      "##ishu": 5932,
      "cidii": 5933,
      "albaabka": 5934,
      "##bitaalka": 5935,
      "##sil": 5936,
      "nabadgal": 5937,
      "nux": 5938,
      "tor": 5939,
      "isweyd": 5940,
      "saacid": 5941,
      "ciidda": 5942,
      "onlf": 5943,
      "ilmo": 5944,
      "kooxdii": 5945,
      "socdaa": 5946,
      "fahan": 5947,
      "##qaan": 5948,
      "qortay": 5949,
      "dilal": 5950,
      "qaadayo": 5951,
      "ballaadhan": 5952,
      "daaweynta": 5953,
      "jah": 5954,
      "dhinacyo": 5955,
      "abuuro": 5956,
      "ameer": 5957,
      "badeed": 5958,
      "dhalashada": 5959,
      "inaanay": 5960,
      "hotelka": 5961,
      "waxaannu": 5962,
      "muranka": 5963,
      "isgoyska": 5964,
      "duug": 5965,
      "shirkaasi": 5966,
      "##eecada": 5967,
      "khasaar": 5968,
      "soomaliyeed": 5969,
      "dardaar": 5970,
      "ist": 5971,
      "kans": 5972,
      "xalaal": 5973,
      "will": 5974,
      "times": 5975,
      "tirtir": 5976,
      "miisaaniyadda": 5977,
      "baabi": 5978,
      "##shaa": 5979,
      "##ooga": 5980,
      "sod": 5981,
      "caabud": 5982,
      "kastaa": 5983,
      "cashuur": 5984,
      "##ayda": 5985,
      "##toon": 5986,
      "iiga": 5987,
      "daraadeed": 5988,
      "baraar": 5989,
      "million": 5990,
      "##onel": 5991,
      "bulshadu": 5992,
      "pakistan": 5993,
      "ever": 5994,
      "##ania": 5995,
      "tarjum": 5996,
      "hadalkii": 5997,
      "##isaaq": 5998,
      "gacmaha": 5999,
      "diirada": 6000,
      "haka": 6001,
      "hadhay": 6002,
      "##ting": 6003,
      "##iiso": 6004,
      "tuug": 6005,
      "wajiga": 6006,
      "rabay": 6007,
      "annaga": 6008,
      "sugida": 6009,
      "hadalo": 6010,
      "qoraa": 6011,
      "dugsi": 6012,
      "fanka": 6013,
      "daarood": 6014,
      "seeg": 6015,
      "fayr": 6016,
      "48": 6017,
      "jidhka": 6018,
      "aroor": 6019,
      "gaza": 6020,
      "xa": 6021,
      "koonfureed": 6022,
      "booqash": 6023,
      "bogaad": 6024,
      "idaacada": 6025,
      "yeelato": 6026,
      "kaab": 6027,
      "malaay": 6028,
      "au": 6029,
      "arch": 6030,
      "xiro": 6031,
      "##ladii": 6032,
      "duba": 6033,
      "ogeys": 6034,
      "naftaada": 6035,
      "guryah": 6036,
      "bilowga": 6037,
      "dhigaysa": 6038,
      "paul": 6039,
      "toogtay": 6040,
      "##eld": 6041,
      "rik": 6042,
      "hanaanka": 6043,
      "##era": 6044,
      "##iyan": 6045,
      "fudu": 6046,
      "iftii": 6047,
      "ow": 6048,
      "##atta": 6049,
      "haweeney": 6050,
      "##sigii": 6051,
      "ismaam": 6052,
      "korantada": 6053,
      "shaaciyey": 6054,
      "jal": 6055,
      "istar": 6056,
      "xasaasi": 6057,
      "amaba": 6058,
      "##ens": 6059,
      "ansha": 6060,
      "qaraxyada": 6061,
      "##sadaa": 6062,
      "sena": 6063,
      "hogaamiye": 6064,
      "horeyn": 6065,
      "34": 6066,
      "samatar": 6067,
      "shabeelle": 6068,
      "talooyin": 6069,
      "muujiyeen": 6070,
      "jeeday": 6071,
      "qolo": 6072,
      "baahanyahay": 6073,
      "musharixiinta": 6074,
      "dhismay": 6075,
      "##alo": 6076,
      "qabooj": 6077,
      "##ima": 6078,
      "caalamku": 6079,
      "usa": 6080,
      "fiqi": 6081,
      "axad": 6082,
      "dhibka": 6083,
      "hirgelinta": 6084,
      "hob": 6085,
      "dhaawacay": 6086,
      "##igana": 6087,
      "sido": 6088,
      "masiib": 6089,
      "warsaxaaf": 6090,
      "maaddaama": 6091,
      "germany": 6092,
      "komishanka": 6093,
      "kaniis": 6094,
      "1991": 6095,
      "sooc": 6096,
      "tran": 6097,
      "nololeed": 6098,
      "hayb": 6099,
      "beddelka": 6100,
      "mudahar": 6101,
      "erdogan": 6102,
      "qabay": 6103,
      "shaandh": 6104,
      "macno": 6105,
      "faro": 6106,
      "soon": 6107,
      "dhexdooda": 6108,
      "##ataan": 6109,
      "dhallinyaro": 6110,
      "siyaasiga": 6111,
      "madaxw": 6112,
      "##aafi": 6113,
      "joojinta": 6114,
      "hababka": 6115,
      "dhulbahante": 6116,
      "amarka": 6117,
      "nabadeed": 6118,
      "##dhka": 6119,
      "waxna": 6120,
      "##haaga": 6121,
      "##aashu": 6122,
      "##ology": 6123,
      "horeba": 6124,
      "qadd": 6125,
      "##aatka": 6126,
      "##dr": 6127,
      "ogtahay": 6128,
      "##kara": 6129,
      "haystay": 6130,
      "ogaal": 6131,
      "sameeyaa": 6132,
      "todobaadkii": 6133,
      "##aduhu": 6134,
      "laguma": 6135,
      "nii": 6136,
      "##adishu": 6137,
      "tallaabada": 6138,
      "sabti": 6139,
      "##tiin": 6140,
      "artic": 6141,
      "samaf": 6142,
      "idil": 6143,
      "dayactirka": 6144,
      "##iisan": 6145,
      "dhabarka": 6146,
      "haday": 6147,
      "jaban": 6148,
      "sm": 6149,
      "doonayso": 6150,
      "pal": 6151,
      "ca": 6152,
      "khab": 6153,
      "hagaajin": 6154,
      "degmadaasi": 6155,
      "qabiilka": 6156,
      "aa": 6157,
      "dadkaas": 6158,
      "##iimaha": 6159,
      "dayay": 6160,
      "barto": 6161,
      "qabanq": 6162,
      "faraxsanahay": 6163,
      "##uuska": 6164,
      "buugga": 6165,
      "yare": 6166,
      "qareen": 6167,
      "degay": 6168,
      "dulqaad": 6169,
      "##daba": 6170,
      "caawiyo": 6171,
      "##yadan": 6172,
      "dhalaal": 6173,
      "faan": 6174,
      "mayd": 6175,
      "nuuc": 6176,
      "##aaaa": 6177,
      "baash": 6178,
      "dhej": 6179,
      "cristi": 6180,
      "qaybtii": 6181,
      "qalbi": 6182,
      "super": 6183,
      "iskuulka": 6184,
      "ahlus": 6185,
      "wak": 6186,
      "waxaas": 6187,
      "militariga": 6188,
      "wanaaj": 6189,
      "nus": 6190,
      "helnay": 6191,
      "dilo": 6192,
      "maamulkaasi": 6193,
      "marki": 6194,
      "geeriyood": 6195,
      "wall": 6196,
      "cusboonays": 6197,
      "sayniska": 6198,
      "##leey": 6199,
      "kordhiyo": 6200,
      "##ther": 6201,
      "xish": 6202,
      "bogag": 6203,
      "fu": 6204,
      "mos": 6205,
      "yuh": 6206,
      "obama": 6207,
      "kil": 6208,
      "maa": 6209,
      "qabsadeen": 6210,
      "xilkii": 6211,
      "dagaalamay": 6212,
      "astaanta": 6213,
      "mudadii": 6214,
      "qaarada": 6215,
      "lad": 6216,
      "qaaw": 6217,
      "horjeedo": 6218,
      "bood": 6219,
      "cadowga": 6220,
      "istanbul": 6221,
      "ogaa": 6222,
      "guryo": 6223,
      "sharrax": 6224,
      "caar": 6225,
      "khaw": 6226,
      "qosol": 6227,
      "##soc": 6228,
      "jubb": 6229,
      "kut": 6230,
      "cos": 6231,
      "cabdirisaaq": 6232,
      "##siiyey": 6233,
      "ilaaliyaha": 6234,
      "univers": 6235,
      "yab": 6236,
      "xidig": 6237,
      "ogow": 6238,
      "##adiisii": 6239,
      "daraaw": 6240,
      "maraakiibta": 6241,
      "##eth": 6242,
      "cunaqab": 6243,
      "heeso": 6244,
      "wasiiradda": 6245,
      "bixisaa": 6246,
      "uud": 6247,
      "diiwaangelinta": 6248,
      "##ler": 6249,
      "sheegatay": 6250,
      "dari": 6251,
      "qardho": 6252,
      "eedeysan": 6253,
      "##iintii": 6254,
      "qow": 6255,
      "qaac": 6256,
      "madaama": 6257,
      "qabsoomay": 6258,
      "dhalisay": 6259,
      "ciddii": 6260,
      "laacibka": 6261,
      "kariim": 6262,
      "##siyad": 6263,
      "ayan": 6264,
      "cashar": 6265,
      "waara": 6266,
      "istaagay": 6267,
      "##ect": 6268,
      "what": 6269,
      "##iida": 6270,
      "khaldan": 6271,
      "##igal": 6272,
      "qabta": 6273,
      "fahmi": 6274,
      "eegista": 6275,
      "farag": 6276,
      "rogay": 6277,
      "abriil": 6278,
      "##sami": 6279,
      "filaan": 6280,
      "bedelay": 6281,
      "ap": 6282,
      "tilmaamaha": 6283,
      "##dhi": 6284,
      "waxii": 6285,
      "roobab": 6286,
      "malaha": 6287,
      "arab": 6288,
      "dabiici": 6289,
      "duhur": 6290,
      "muhii": 6291,
      "cristiano": 6292,
      "qarsoodi": 6293,
      "##ower": 6294,
      "fasalka": 6295,
      "alumin": 6296,
      "##gs": 6297,
      "maamulaha": 6298,
      "horeeya": 6299,
      "dhammaadka": 6300,
      "badbaado": 6301,
      "casilay": 6302,
      "siduu": 6303,
      "##sida": 6304,
      "qum": 6305,
      "dhaxeysa": 6306,
      "37": 6307,
      "liibiya": 6308,
      "pc": 6309,
      "intay": 6310,
      "muxam": 6311,
      "lif": 6312,
      "##uut": 6313,
      "nooga": 6314,
      "qashinka": 6315,
      "##aayada": 6316,
      "aragnimo": 6317,
      "qaadin": 6318,
      "##iyah": 6319,
      "saaxil": 6320,
      "##gr": 6321,
      "##aayaan": 6322,
      "binu": 6323,
      "joojiyay": 6324,
      "gurigiisa": 6325,
      "waxtarka": 6326,
      "xayawaan": 6327,
      "murashax": 6328,
      "diideen": 6329,
      "##dhaw": 6330,
      "yahan": 6331,
      "400": 6332,
      "diyaarada": 6333,
      "xiriirta": 6334,
      "danbayn": 6335,
      "##walka": 6336,
      "suub": 6337,
      "##ner": 6338,
      "##axa": 6339,
      "mogadishu": 6340,
      "##aadada": 6341,
      "kenyatta": 6342,
      "baasab": 6343,
      "las": 6344,
      "gabdh": 6345,
      "aruur": 6346,
      "##adeena": 6347,
      "cabbirka": 6348,
      "##uunta": 6349,
      "holland": 6350,
      "abshir": 6351,
      "##eat": 6352,
      "waydiin": 6353,
      "fayl": 6354,
      "diri": 6355,
      "sabtida": 6356,
      "xaawo": 6357,
      "tek": 6358,
      "shirkaas": 6359,
      "billaab": 6360,
      "sto": 6361,
      "##iday": 6362,
      "doorashooyin": 6363,
      "##ero": 6364,
      "adkeeyay": 6365,
      "xafladda": 6366,
      "soomaaliy": 6367,
      "illaahay": 6368,
      "##eyey": 6369,
      "##mayaan": 6370,
      "dhisi": 6371,
      "##buur": 6372,
      "daawan": 6373,
      "lkn": 6374,
      "##khtaar": 6375,
      "qorsheysan": 6376,
      "hum": 6377,
      "abuukar": 6378,
      "maaliyadeed": 6379,
      "uurka": 6380,
      "taak": 6381,
      "cabdikar": 6382,
      "macnaha": 6383,
      "pres": 6384,
      "count": 6385,
      "qoom": 6386,
      "dhafan": 6387,
      "xayeys": 6388,
      "guddoomiyihii": 6389,
      "dabacsan": 6390,
      "##adiis": 6391,
      "##xb": 6392,
      "baahi": 6393,
      "musiib": 6394,
      "celiyey": 6395,
      "ansixiyay": 6396,
      "jawaabta": 6397,
      "hantid": 6398,
      "kull": 6399,
      "xilligaas": 6400,
      "##adir": 6401,
      "##atid": 6402,
      "jiritaanka": 6403,
      "tignoolajiyada": 6404,
      "sanadood": 6405,
      "afghan": 6406,
      "mukhtaar": 6407,
      "addaha": 6408,
      "siinayo": 6409,
      "cuq": 6410,
      "shaacin": 6411,
      "guulo": 6412,
      "university": 6413,
      "##ootiga": 6414,
      "##aatiij": 6415,
      "nigeria": 6416,
      "xafiisyada": 6417,
      "falalka": 6418,
      "##kale": 6419,
      "walbo": 6420,
      "ciqaab": 6421,
      "dekeda": 6422,
      "shirarka": 6423,
      "##ardi": 6424,
      "weerarkan": 6425,
      "dubai": 6426,
      "isbeddelka": 6427,
      "bandhigi": 6428,
      "##ones": 6429,
      "jawi": 6430,
      "tixraac": 6431,
      "abaalmarinta": 6432,
      "bakh": 6433,
      "aalaha": 6434,
      "cidh": 6435,
      "##mp": 6436,
      "edi": 6437,
      "##eeysa": 6438,
      "rabb": 6439,
      "##ara": 6440,
      "raba": 6441,
      "hordhac": 6442,
      "##bana": 6443,
      "rom": 6444,
      "##aansho": 6445,
      "jeedaa": 6446,
      "top": 6447,
      "halbeeg": 6448,
      "aaday": 6449,
      "naw": 6450,
      "geedka": 6451,
      "shaashadda": 6452,
      "ganacsade": 6453,
      "telefish": 6454,
      "rw": 6455,
      "maxamud": 6456,
      "miino": 6457,
      "degen": 6458,
      "danbeyn": 6459,
      "hadduu": 6460,
      "hib": 6461,
      "gaarto": 6462,
      "danbeeyey": 6463,
      "raashin": 6464,
      "##laa": 6465,
      "aanad": 6466,
      "saarayo": 6467,
      "garoo": 6468,
      "##main": 6469,
      "daraawiish": 6470,
      "maraya": 6471,
      "qaabab": 6472,
      "nabiga": 6473,
      "degaanada": 6474,
      "daily": 6475,
      "aluminium": 6476,
      "hid": 6477,
      "xaflada": 6478,
      "odayaal": 6479,
      "tijaabada": 6480,
      "##gana": 6481,
      "james": 6482,
      "laysku": 6483,
      "mudanayaasha": 6484,
      "qaxooti": 6485,
      "aqoonsi": 6486,
      "wabiga": 6487,
      "suxufiyiinta": 6488,
      "##ror": 6489,
      "muhiimadda": 6490,
      "booqashada": 6491,
      "blu": 6492,
      "dedaal": 6493,
      "jeclahay": 6494,
      "mish": 6495,
      "natiijo": 6496,
      "dhamaatay": 6497,
      "furtay": 6498,
      "doonka": 6499,
      "tabar": 6500,
      "durba": 6501,
      "##tani": 6502,
      "##undi": 6503,
      "bishaan": 6504,
      "##port": 6505,
      "muuqdaan": 6506,
      "##noq": 6507,
      "madaarka": 6508,
      "baxsaday": 6509,
      "##ishka": 6510,
      "gantaal": 6511,
      "isboortiga": 6512,
      "wargeys": 6513,
      "jeedaan": 6514,
      "fi": 6515,
      "play": 6516,
      "##iman": 6517,
      "fashilmay": 6518,
      "farta": 6519,
      "##daas": 6520,
      "shaqeynta": 6521,
      "ixtiraam": 6522,
      "sannadood": 6523,
      "farriin": 6524,
      "aasha": 6525,
      "##rib": 6526,
      "dooday": 6527,
      "qaarna": 6528,
      "dejin": 6529,
      "taleex": 6530,
      "##ifa": 6531,
      "lakiin": 6532,
      "argagixiso": 6533,
      "qowm": 6534,
      "2007": 6535,
      "maareeyaha": 6536,
      "weydiiyey": 6537,
      "baahna": 6538,
      "weynaa": 6539,
      "ballaar": 6540,
      "##dega": 6541,
      "foo": 6542,
      "xidho": 6543,
      "##ds": 6544,
      "dibadbax": 6545,
      "macallim": 6546,
      "waxeey": 6547,
      "asl": 6548,
      "nec": 6549,
      "dhiiri": 6550,
      "yam": 6551,
      "tp": 6552,
      "baadi": 6553,
      "sem": 6554,
      "inaa": 6555,
      "##iray": 6556,
      "gunn": 6557,
      "mustafe": 6558,
      "sugnaayeen": 6559,
      "isbadal": 6560,
      "##ixi": 6561,
      "kacsan": 6562,
      "shaqooyin": 6563,
      "muuqataa": 6564,
      "mareen": 6565,
      "sameeya": 6566,
      "silsil": 6567,
      "raggii": 6568,
      "darada": 6569,
      "golayaasha": 6570,
      "cadaalada": 6571,
      "##igaabo": 6572,
      "dhammaaday": 6573,
      "dhalinta": 6574,
      "turkey": 6575,
      "niiko": 6576,
      "haysata": 6577,
      "38": 6578,
      "##cess": 6579,
      "dall": 6580,
      "madad": 6581,
      "char": 6582,
      "kuleylka": 6583,
      "baaritaano": 6584,
      "tilmaameen": 6585,
      "minne": 6586,
      "telefoonka": 6587,
      "bedd": 6588,
      "geliyey": 6589,
      "##por": 6590,
      "taageeray": 6591,
      "taan": 6592,
      "qaraab": 6593,
      "##tuna": 6594,
      "hayeen": 6595,
      "malaa": 6596,
      "asaas": 6597,
      "waxeyna": 6598,
      "tareen": 6599,
      "wakaalada": 6600,
      "dekadda": 6601,
      "stad": 6602,
      "fikirka": 6603,
      "diyaarinta": 6604,
      "dhiirr": 6605,
      "waayeel": 6606,
      "laakiinse": 6607,
      "maxamad": 6608,
      "wariyaha": 6609,
      "##ussia": 6610,
      "hubi": 6611,
      "raage": 6612,
      "aansaday": 6613,
      "av": 6614,
      "alw": 6615,
      "india": 6616,
      "doom": 6617,
      "horjoog": 6618,
      "kuuriyada": 6619,
      "argent": 6620,
      "kabadan": 6621,
      "##isey": 6622,
      "dhowaad": 6623,
      "views": 6624,
      "daljir": 6625,
      "wadaagaan": 6626,
      "vs": 6627,
      "kaabay": 6628,
      "shuruucda": 6629,
      "##aadii": 6630,
      "##urs": 6631,
      "gaaska": 6632,
      "##ant": 6633,
      "dooro": 6634,
      "##ihiis": 6635,
      "gaarsiin": 6636,
      "weynaha": 6637,
      "lionel": 6638,
      "tagtay": 6639,
      "lacageed": 6640,
      "qun": 6641,
      "harsan": 6642,
      "martida": 6643,
      "bannaanka": 6644,
      "dammaan": 6645,
      "nuqul": 6646,
      "dani": 6647,
      "khawaarij": 6648,
      "waran": 6649,
      "hall": 6650,
      "kitaabka": 6651,
      "burburka": 6652,
      "##eeyso": 6653,
      "fahad": 6654,
      "##key": 6655,
      "xoogag": 6656,
      "finalka": 6657,
      "ahaato": 6658,
      "##letico": 6659,
      "dhisayo": 6660,
      "barwaaqo": 6661,
      "az": 6662,
      "xagjir": 6663,
      "wasaarihii": 6664,
      "ceerigaabo": 6665,
      "istir": 6666,
      "tib": 6667,
      "nabadsug": 6668,
      "qaw": 6669,
      "##rac": 6670,
      "##tec": 6671,
      "siyaabo": 6672,
      "musharaxa": 6673,
      "dowlaha": 6674,
      "ms": 6675,
      "gid": 6676,
      "howlgallo": 6677,
      "bilowgii": 6678,
      "beeleed": 6679,
      "toogasho": 6680,
      "kaadh": 6681,
      "adan": 6682,
      "woq": 6683,
      "taasna": 6684,
      "aragtay": 6685,
      "xuduudaha": 6686,
      "masaaf": 6687,
      "ard": 6688,
      "bilaabatay": 6689,
      "ash": 6690,
      "dhiiga": 6691,
      "##aawi": 6692,
      "iftiin": 6693,
      "yareeyo": 6694,
      "febraayo": 6695,
      "##adar": 6696,
      "cinwaan": 6697,
      "put": 6698,
      "daruur": 6699,
      "beddelo": 6700,
      "micro": 6701,
      "gobolkaasi": 6702,
      "##iyadu": 6703,
      "shirkado": 6704,
      "qeybtii": 6705,
      "##anews": 6706,
      "qaabkii": 6707,
      "tuhun": 6708,
      "dhankiisa": 6709,
      "##tiyo": 6710,
      "faahfaahinta": 6711,
      "maleeshiyaad": 6712,
      "geeriyootay": 6713,
      "haduu": 6714,
      "nabadgelyada": 6715,
      "##uyuu": 6716,
      "liga": 6717,
      "haray": 6718,
      "##deeda": 6719,
      "adeegsanayo": 6720,
      "kaahin": 6721,
      "biden": 6722,
      "##mer": 6723,
      "aaney": 6724,
      "##axda": 6725,
      "tukar": 6726,
      "##ihiisu": 6727,
      "##ters": 6728,
      "caqliga": 6729,
      "gl": 6730,
      "duubay": 6731,
      "jaz": 6732,
      "milkii": 6733,
      "udha": 6734,
      "horumarineed": 6735,
      "bartiisa": 6736,
      "galiyo": 6737,
      "kordhay": 6738,
      "##maar": 6739,
      "##geli": 6740,
      "macalinka": 6741,
      "ood": 6742,
      "khayraadka": 6743,
      "qaadis": 6744,
      "fikrad": 6745,
      "denmark": 6746,
      "dambaysay": 6747,
      "danjiraha": 6748,
      "##24": 6749,
      "sonkor": 6750,
      "##sin": 6751,
      "ciyaareedkii": 6752,
      "mowqif": 6753,
      "sanado": 6754,
      "gudbay": 6755,
      "ciidamadu": 6756,
      "abid": 6757,
      "haly": 6758,
      "dilalka": 6759,
      "ruuxa": 6760,
      "daabacaadda": 6761,
      "##gaan": 6762,
      "hala": 6763,
      "qurxinta": 6764,
      "cararay": 6765,
      "daahfur": 6766,
      "baadhitaan": 6767,
      "caleemo": 6768,
      "jimcihii": 6769,
      "##iiro": 6770,
      "shaqeeyay": 6771,
      "toosan": 6772,
      "machadka": 6773,
      "gudihiisa": 6774,
      "aaw": 6775,
      "mahadcelin": 6776,
      "horreeyey": 6777,
      "##saha": 6778,
      "videos": 6779,
      "xidid": 6780,
      "##pa": 6781,
      "##geliyay": 6782,
      "telefoon": 6783,
      "taxanaha": 6784,
      "gee": 6785,
      "iibiyo": 6786,
      "adeegyo": 6787,
      "hiig": 6788,
      "heeg": 6789,
      "mahadnaq": 6790,
      "iibin": 6791,
      "raaco": 6792,
      "##itz": 6793,
      "##jam": 6794,
      "str": 6795,
      "eeday": 6796,
      "atletico": 6797,
      "kheyraadka": 6798,
      "tukaraq": 6799,
      "moor": 6800,
      "gobalada": 6801,
      "##taana": 6802,
      "noqoshada": 6803,
      "jaj": 6804,
      "fiil": 6805,
      "##els": 6806,
      "ahaaneed": 6807,
      "woqooy": 6808,
      "##hak": 6809,
      "lagaa": 6810,
      "arintaasi": 6811,
      "suugaanta": 6812,
      "eegtay": 6813,
      "##igelinta": 6814,
      "rumaysan": 6815,
      "geeddi": 6816,
      "43": 6817,
      "maamu": 6818,
      "rac": 6819,
      "xik": 6820,
      "masaajid": 6821,
      "hebel": 6822,
      "malaayiin": 6823,
      "tixgelin": 6824,
      "jeediyeen": 6825,
      "muuqatay": 6826,
      "garoomada": 6827,
      "noqnoq": 6828,
      "dhaxeeyay": 6829,
      "elek": 6830,
      "sow": 6831,
      "150": 6832,
      "##ling": 6833,
      "ibrahim": 6834,
      "uhur": 6835,
      "iidada": 6836,
      "##nan": 6837,
      "maqnaan": 6838,
      "ujeedka": 6839,
      "##kaagu": 6840,
      "awal": 6841,
      "dhamaystiran": 6842,
      "galinta": 6843,
      "taagnaa": 6844,
      "fududahay": 6845,
      "dartay": 6846,
      "guulaha": 6847,
      "burundi": 6848,
      "qaawan": 6849,
      "dagaallo": 6850,
      "dhexdiisa": 6851,
      "sxb": 6852,
      "cak": 6853,
      "damacsan": 6854,
      "##tiisu": 6855,
      "xeryaha": 6856,
      "barakacay": 6857,
      "techn": 6858,
      "goo": 6859,
      "##eedh": 6860,
      "##eelo": 6861,
      "39": 6862,
      "kulaylka": 6863,
      "afghanistan": 6864,
      "howsha": 6865,
      "waaj": 6866,
      "insaanka": 6867,
      "miyaan": 6868,
      "wareedyo": 6869,
      "casr": 6870,
      "balcad": 6871,
      "youtub": 6872,
      "ogayn": 6873,
      "caawiyaan": 6874,
      "##embar": 6875,
      "samee": 6876,
      "##addaas": 6877,
      "wareejiyo": 6878,
      "bartaan": 6879,
      "kaydinta": 6880,
      "unugyada": 6881,
      "faray": 6882,
      "rabbiga": 6883,
      "kr": 6884,
      "##anada": 6885,
      "kkkkk": 6886,
      "garoob": 6887,
      "haba": 6888,
      "ciidankii": 6889,
      "dhaleec": 6890,
      "agoosto": 6891,
      "culeys": 6892,
      "##ahu": 6893,
      "##liam": 6894,
      "jubbooyinka": 6895,
      "karti": 6896,
      "jimcaale": 6897,
      "adkaan": 6898,
      "caddaalad": 6899,
      "##sanayaan": 6900,
      "gudbinta": 6901,
      "##fer": 6902,
      "madaxdii": 6903,
      "xiisadda": 6904,
      "feej": 6905,
      "midnimo": 6906,
      "##ila": 6907,
      "goynta": 6908,
      "muun": 6909,
      "aflag": 6910,
      "##reeb": 6911,
      "toona": 6912,
      "xanaaq": 6913,
      "qorsheynta": 6914,
      "mee": 6915,
      "mail": 6916,
      "waajibaadka": 6917,
      "dadban": 6918,
      "dhankooda": 6919,
      "dheef": 6920,
      "badana": 6921,
      "munaasabada": 6922,
      "knn": 6923,
      "tum": 6924,
      "guji": 6925,
      "lambar": 6926,
      "albaab": 6927,
      "ki": 6928,
      "dowladdii": 6929,
      "##ese": 6930,
      "aadamka": 6931,
      "rasuulka": 6932,
      "hortaag": 6933,
      "baakadaha": 6934,
      "dhum": 6935,
      "bamb": 6936,
      "##we": 6937,
      "daan": 6938,
      "gaarsiiyay": 6939,
      "lamid": 6940,
      "luulyo": 6941,
      "walaalo": 6942,
      "amiin": 6943,
      "##khal": 6944,
      "mer": 6945,
      "macr": 6946,
      "shanaad": 6947,
      "te": 6948,
      "kali": 6949,
      "abaarta": 6950,
      "sirta": 6951,
      "olole": 6952,
      "##eysid": 6953,
      "cagaaran": 6954,
      "dacwada": 6955,
      "75": 6956,
      "##mayo": 6957,
      "##dinta": 6958,
      "##lar": 6959,
      "lid": 6960,
      "layaab": 6961,
      "uuliyadda": 6962,
      "helaa": 6963,
      "khaas": 6964,
      "##koo": 6965,
      "fadhig": 6966,
      "##eestay": 6967,
      "dhoofinta": 6968,
      "mahadceliyay": 6969,
      "44": 6970,
      "##ugal": 6971,
      "waawayn": 6972,
      "##ext": 6973,
      "weey": 6974,
      "ismiid": 6975,
      "dhexaad": 6976,
      "dawan": 6977,
      "deegaanno": 6978,
      "kulankaas": 6979,
      "siinaya": 6980,
      "maaraynta": 6981,
      "liibaan": 6982,
      "madaxbanaan": 6983,
      "agabka": 6984,
      "haddaad": 6985,
      "intaba": 6986,
      "maxaabiista": 6987,
      "kus": 6988,
      "usbuuc": 6989,
      "55": 6990,
      "##19": 6991,
      "degdega": 6992,
      "xigeenkii": 6993,
      "oro": 6994,
      "##ugh": 6995,
      "dilkii": 6996,
      "siddeed": 6997,
      "naftooda": 6998,
      "dhall": 6999,
      "shacabku": 7000,
      "warbixiyay": 7001,
      "ajnab": 7002,
      "old": 7003,
      "muslimka": 7004,
      "##sadey": 7005,
      "calan": 7006,
      "barbaar": 7007,
      "miyiga": 7008,
      "kulankaan": 7009,
      "xiisad": 7010,
      "##con": 7011,
      "baahnaa": 7012,
      "qarash": 7013,
      "mushahar": 7014,
      "joogaa": 7015,
      "nadiifinta": 7016,
      "sheegnay": 7017,
      "ineey": 7018,
      "##wadeen": 7019,
      "cry": 7020,
      "iyagana": 7021,
      "hawsh": 7022,
      "doc": 7023,
      "suuf": 7024,
      "##iss": 7025,
      "waqtigan": 7026,
      "shaxda": 7027,
      "koro": 7028,
      "madaxtooyadda": 7029,
      "than": 7030,
      "baahnayn": 7031,
      "saacadihii": 7032,
      "##heen": 7033,
      "peop": 7034,
      "ankara": 7035,
      "waxgarad": 7036,
      "danab": 7037,
      "usii": 7038,
      "xiligan": 7039,
      "##lyw": 7040,
      "buuraha": 7041,
      "cabasho": 7042,
      "kormeerka": 7043,
      "jeeb": 7044,
      "##10": 7045,
      "gudbi": 7046,
      "fuliyo": 7047,
      "weerarkaasi": 7048,
      "nidaamyada": 7049,
      "magaalooyin": 7050,
      "1960": 7051,
      "daboolka": 7052,
      "buuq": 7053,
      "mobile": 7054,
      "cuno": 7055,
      "##tayda": 7056,
      "sports": 7057,
      "bandhigeen": 7058,
      "taagay": 7059,
      "guddoon": 7060,
      "live": 7061,
      "rober": 7062,
      "youtube": 7063,
      "buk": 7064,
      "##ust": 7065,
      "carqal": 7066,
      "##uudda": 7067,
      "diyaariyay": 7068,
      "wareejinta": 7069,
      "deriska": 7070,
      "saarin": 7071,
      "maka": 7072,
      "##aafka": 7073,
      "##aadaa": 7074,
      "naftiisa": 7075,
      "xero": 7076,
      "darr": 7077,
      "joogi": 7078,
      "##uel": 7079,
      "##aane": 7080,
      "maryan": 7081,
      "muwaadiniin": 7082,
      "##fa": 7083,
      "hadla": 7084,
      "gaadheen": 7085,
      "##gab": 7086,
      "maamuus": 7087,
      "kaashan": 7088,
      "##diin": 7089,
      "##ator": 7090,
      "wateen": 7091,
      "badalay": 7092,
      "dambeysa": 7093,
      "gacal": 7094,
      "dheh": 7095,
      "##gor": 7096,
      "stadium": 7097,
      "band": 7098,
      "timaha": 7099,
      "iswiidh": 7100,
      "##maday": 7101,
      "dhaan": 7102,
      "europe": 7103,
      "kulankaasi": 7104,
      "gudoon": 7105,
      "bilaa": 7106,
      "hoob": 7107,
      "pre": 7108,
      "fuul": 7109,
      "talinayaa": 7110,
      "doorb": 7111,
      "adeegsiga": 7112,
      "##kee": 7113,
      "qaybood": 7114,
      "qis": 7115,
      "inn": 7116,
      "majir": 7117,
      "kaabayaasha": 7118,
      "khadar": 7119,
      "ayagoo": 7120,
      "faall": 7121,
      "##ci": 7122,
      "wakhtigii": 7123,
      "xoogaga": 7124,
      "shal": 7125,
      "##ele": 7126,
      "taleefanka": 7127,
      "ubad": 7128,
      "##asa": 7129,
      "mashruucan": 7130,
      "cs": 7131,
      "under": 7132,
      "labaduba": 7133,
      "isbar": 7134,
      "##geeda": 7135,
      "saliidda": 7136,
      "mooyee": 7137,
      "qaybsan": 7138,
      "sheegan": 7139,
      "xambaarsan": 7140,
      "##wali": 7141,
      "##pl": 7142,
      "##ement": 7143,
      "aaladaha": 7144,
      "safka": 7145,
      "qoond": 7146,
      "sabtidii": 7147,
      "wadajirka": 7148,
      "cop": 7149,
      "42": 7150,
      "shaqadii": 7151,
      "heysa": 7152,
      "2000": 7153,
      "ilaaliyaan": 7154,
      "##kaar": 7155,
      "##gaas": 7156,
      "muujisay": 7157,
      "##qar": 7158,
      "ayaga": 7159,
      "khamiistii": 7160,
      "kaarka": 7161,
      "bosaso": 7162,
      "muxum": 7163,
      "iri": 7164,
      "##aynayaan": 7165,
      "mov": 7166,
      "##tiisii": 7167,
      "ruush": 7168,
      "she": 7169,
      "people": 7170,
      "suurtogal": 7171,
      "ahaado": 7172,
      "hoostaga": 7173,
      "kalluunka": 7174,
      "amiir": 7175,
      "markh": 7176,
      "maantana": 7177,
      "suuragal": 7178,
      "47": 7179,
      "cabdalla": 7180,
      "cadeeyay": 7181,
      "dano": 7182,
      "qorshaynta": 7183,
      "dhagayso": 7184,
      "xagaagan": 7185,
      "caano": 7186,
      "tusaal": 7187,
      "caloosha": 7188,
      "##nal": 7189,
      "##adayada": 7190,
      "alwaax": 7191,
      "yara": 7192,
      "##ush": 7193,
      "muujiyaan": 7194,
      "rajeyn": 7195,
      "socotaa": 7196,
      "shirkaddu": 7197,
      "diiran": 7198,
      "shahaado": 7199,
      "shaqsiyaad": 7200,
      "xoojiyo": 7201,
      "##door": 7202,
      "##ashii": 7203,
      "guddiyada": 7204,
      "aabb": 7205,
      "gabdho": 7206,
      "waalidiinta": 7207,
      "##aashay": 7208,
      "marinka": 7209,
      "bulshadda": 7210,
      "##teriga": 7211,
      "samayso": 7212,
      "heysta": 7213,
      "makh": 7214,
      "dhererka": 7215,
      "##xaan": 7216,
      "##iber": 7217,
      "halga": 7218,
      "##tus": 7219,
      "iyagoona": 7220,
      "qura": 7221,
      "guardi": 7222,
      "noolaan": 7223,
      "horkeen": 7224,
      "cill": 7225,
      "hort": 7226,
      "raacsan": 7227,
      "daawada": 7228,
      "tallaalka": 7229,
      "sebt": 7230,
      "cadaw": 7231,
      "casiis": 7232,
      "duu": 7233,
      "##haye": 7234,
      "china": 7235,
      "hadalada": 7236,
      "isticmaa": 7237,
      "farshaxan": 7238,
      "fiiq": 7239,
      "kooxdan": 7240,
      "mans": 7241,
      "laan": 7242,
      "tartamay": 7243,
      "3aad": 7244,
      "degmadda": 7245,
      "anagu": 7246,
      "guric": 7247,
      "portugal": 7248,
      "horkac": 7249,
      "xij": 7250,
      "casino": 7251,
      "##aagii": 7252,
      "xo": 7253,
      "dirayaa": 7254,
      "majeer": 7255,
      "kaca": 7256,
      "badbaaday": 7257,
      "aqbalay": 7258,
      "noqda": 7259,
      "##tab": 7260,
      "uhuru": 7261,
      "hawo": 7262,
      "##oobi": 7263,
      "##ign": 7264,
      "caddaaladda": 7265,
      "##ibaan": 7266,
      "sareysa": 7267,
      "jeneraal": 7268,
      "noocaas": 7269,
      "dishay": 7270,
      "##yinka": 7271,
      "muhaajir": 7272,
      "aamiin": 7273,
      "##wxo": 7274,
      "ky": 7275,
      "bare": 7276,
      "gelinkii": 7277,
      "caanaha": 7278,
      "law": 7279,
      "##aynaynaa": 7280,
      "kawada": 7281,
      "##ates": 7282,
      "sain": 7283,
      "film": 7284,
      "muddooyinkii": 7285,
      "mand": 7286,
      "cabash": 7287,
      "dooneyso": 7288,
      "##ance": 7289,
      "dadwayn": 7290,
      "raq": 7291,
      "shirweynaha": 7292,
      "wacyi": 7293,
      "cabdiqaadir": 7294,
      "qarnigii": 7295,
      "sharciyada": 7296,
      "sidda": 7297,
      "tegey": 7298,
      "isticmaasho": 7299,
      "isbahaysiga": 7300,
      "deegaankaasi": 7301,
      "ilaha": 7302,
      "kulantay": 7303,
      "##ive": 7304,
      "todobaadkan": 7305,
      "lixaad": 7306,
      "degdegga": 7307,
      "xaalado": 7308,
      "xulashada": 7309,
      "saas": 7310,
      "iibinta": 7311,
      "kunool": 7312,
      "sheegaan": 7313,
      "hilibka": 7314,
      "guriceel": 7315,
      "about": 7316,
      "geyn": 7317,
      "jawaabo": 7318,
      "##ker": 7319,
      "maamulo": 7320,
      "rayaale": 7321,
      "final": 7322,
      "agaasime": 7323,
      "quus": 7324,
      "##idaha": 7325,
      "##tis": 7326,
      "faahfaahsan": 7327,
      "jadwalka": 7328,
      "isniinta": 7329,
      "wadar": 7330,
      "dayr": 7331,
      "cabdulqaadir": 7332,
      "asxaabta": 7333,
      "danyar": 7334,
      "keenaan": 7335,
      "xabash": 7336,
      "darawal": 7337,
      "taxane": 7338,
      "##anaa": 7339,
      "jidadka": 7340,
      "oromada": 7341,
      "maamulkii": 7342,
      "xaqiijinta": 7343,
      "kn": 7344,
      "dalkii": 7345,
      "warsaxaafadeed": 7346,
      "##oodo": 7347,
      "geystaan": 7348,
      "waxuuna": 7349,
      "tikn": 7350,
      "tibaax": 7351,
      "xarr": 7352,
      "gudbiyo": 7353,
      "cadc": 7354,
      "##lish": 7355,
      "dhid": 7356,
      "goordhow": 7357,
      "##top": 7358,
      "caydiid": 7359,
      "sedex": 7360,
      "##ids": 7361,
      "##olis": 7362,
      "deynta": 7363,
      "wareer": 7364,
      "rasaasta": 7365,
      "fun": 7366,
      "gover": 7367,
      "abuuri": 7368,
      "wadaago": 7369,
      "kubad": 7370,
      "fiiro": 7371,
      "noloshaada": 7372,
      "xirka": 7373,
      "gumaysiga": 7374,
      "ruq": 7375,
      "mataan": 7376,
      "xildhibaanno": 7377,
      "khilaafaadka": 7378,
      "tilmaamo": 7379,
      "##hael": 7380,
      "jibr": 7381,
      "men": 7382,
      "halyeey": 7383,
      "wejiga": 7384,
      "markabka": 7385,
      "cabdin": 7386,
      "##eya": 7387,
      "till": 7388,
      "muuqdo": 7389,
      "abuurtay": 7390,
      "bixiyeen": 7391,
      "intiisa": 7392,
      "natiijooyinka": 7393,
      "qaababka": 7394,
      "baraawe": 7395,
      "sams": 7396,
      "qaraar": 7397,
      "masaajidka": 7398,
      "194": 7399,
      "xilalka": 7400,
      "boodh": 7401,
      "kacaan": 7402,
      "dimoq": 7403,
      "##anay": 7404,
      "macalimiinta": 7405,
      "ameerika": 7406,
      "xariga": 7407,
      "files": 7408,
      "lun": 7409,
      "##ria": 7410,
      "sim": 7411,
      "gudbiyeen": 7412,
      "kansarka": 7413,
      "##udio": 7414,
      "biiro": 7415,
      "xaqiiqada": 7416,
      "rais": 7417,
      "ja": 7418,
      "out": 7419,
      "bixiyaa": 7420,
      "fikradaha": 7421,
      "qoraaga": 7422,
      "##haasi": 7423,
      "hobyo": 7424,
      "##mooyinka": 7425,
      "inaynu": 7426,
      "marwalba": 7427,
      "poly": 7428,
      "doortaan": 7429,
      "lugu": 7430,
      "xaqiijisay": 7431,
      "badisay": 7432,
      "his": 7433,
      "tas": 7434,
      "##ath": 7435,
      "ney": 7436,
      "kacdoon": 7437,
      "##kil": 7438,
      "qaf": 7439,
      "siil": 7440,
      "kaydka": 7441,
      "xireen": 7442,
      "beenta": 7443,
      "goboll": 7444,
      "##tes": 7445,
      "ismaamulka": 7446,
      "##araha": 7447,
      "foom": 7448,
      "taageera": 7449,
      "cadda": 7450,
      "##amo": 7451,
      "abdir": 7452,
      "xfs": 7453,
      "##ena": 7454,
      "axs": 7455,
      "soconaya": 7456,
      "anton": 7457,
      "lammaan": 7458,
      "ogolaaday": 7459,
      "xukuntay": 7460,
      "nafta": 7461,
      "##iyeyaal": 7462,
      "beelood": 7463,
      "raxan": 7464,
      "qalinka": 7465,
      "kani": 7466,
      "guulaysan": 7467,
      "colaadda": 7468,
      "et": 7469,
      "xaqiijiyo": 7470,
      "badhas": 7471,
      "dhafka": 7472,
      "heesta": 7473,
      "##intii": 7474,
      "toddobaadkan": 7475,
      "##aco": 7476,
      "noqonayaa": 7477,
      "doontaan": 7478,
      "haystaa": 7479,
      "xalinta": 7480,
      "xisbul": 7481,
      "get": 7482,
      "##erson": 7483,
      "kulmo": 7484,
      "qaranku": 7485,
      "xasaas": 7486,
      "habsami": 7487,
      "cadawga": 7488,
      "ibnu": 7489,
      "##inay": 7490,
      "taageeraan": 7491,
      "degmooyin": 7492,
      "##ole": 7493,
      "##haya": 7494,
      "madaxtinimada": 7495,
      "koors": 7496,
      "bi": 7497,
      "##sano": 7498,
      "axmad": 7499,
      "qorraxda": 7500,
      "badankood": 7501,
      "warkan": 7502,
      "##inayey": 7503,
      "webiga": 7504,
      "belg": 7505,
      "tplf": 7506,
      "soosaar": 7507,
      "rin": 7508,
      "los": 7509,
      "martig": 7510,
      "micn": 7511,
      "laabtaan": 7512,
      "##vo": 7513,
      "isdaba": 7514,
      "xubnihii": 7515,
      "xamuulka": 7516,
      "america": 7517,
      "pho": 7518,
      "hoggaamiye": 7519,
      "joojiyaan": 7520,
      "maleeshiyo": 7521,
      "darajada": 7522,
      "num": 7523,
      "beeniyay": 7524,
      "fadeex": 7525,
      "##iiyo": 7526,
      "##aasho": 7527,
      "magal": 7528,
      "xirfadaha": 7529,
      "jajab": 7530,
      "falka": 7531,
      "qudha": 7532,
      "madaxweynayaasha": 7533,
      "wanaaga": 7534,
      "##oqon": 7535,
      "tow": 7536,
      "saxan": 7537,
      "waxyaabihii": 7538,
      "##ning": 7539,
      "ajaanib": 7540,
      "xarig": 7541,
      "aqlab": 7542,
      "##adoodii": 7543,
      "salaadda": 7544,
      "guuleysatay": 7545,
      "qadka": 7546,
      "warramay": 7547,
      "koobi": 7548,
      "muslimiin": 7549,
      "##oonis": 7550,
      "amaanay": 7551,
      "##nta": 7552,
      "hop": 7553,
      "saint": 7554,
      "##media": 7555,
      "shabaabka": 7556,
      "buuf": 7557,
      "##say": 7558,
      "deb": 7559,
      "##burg": 7560,
      "faad": 7561,
      "saacad": 7562,
      "muhiimada": 7563,
      "ut": 7564,
      "qorsheeyay": 7565,
      "marba": 7566,
      "##ny": 7567,
      "mudnaanta": 7568,
      "nugu": 7569,
      "tartamaya": 7570,
      "ltd": 7571,
      "eegayo": 7572,
      "##ille": 7573,
      "xukuumad": 7574,
      "maha": 7575,
      "school": 7576,
      "haat": 7577,
      "shimb": 7578,
      "marinta": 7579,
      "tekn": 7580,
      "##30": 7581,
      "dadaallada": 7582,
      "hoteel": 7583,
      "welw": 7584,
      "qoraalkan": 7585,
      "##apolis": 7586,
      "##ms": 7587,
      "##adeedka": 7588,
      "dhigayo": 7589,
      "##iican": 7590,
      "waydiiyay": 7591,
      "waxyeelo": 7592,
      "rabitaanka": 7593,
      "dahabka": 7594,
      "siid": 7595,
      "##alaha": 7596,
      "dhaadhic": 7597,
      "isniintii": 7598,
      "cum": 7599,
      "##eeysan": 7600,
      "##abo": 7601,
      "albaabada": 7602,
      "saaxiibtinimo": 7603,
      "iskud": 7604,
      "federal": 7605,
      "nawaax": 7606,
      "##kuu": 7607,
      "##iti": 7608,
      "aug": 7609,
      "daroog": 7610,
      "##shaan": 7611,
      "ansixinta": 7612,
      "qabqab": 7613,
      "##iisku": 7614,
      "shaqeyso": 7615,
      "ergada": 7616,
      "dagmada": 7617,
      "yariis": 7618,
      "##gaaga": 7619,
      "xabsiyada": 7620,
      "sameynayo": 7621,
      "bandhigo": 7622,
      "toddobaadkii": 7623,
      "##kkk": 7624,
      "hubinta": 7625,
      "##dil": 7626,
      "ambas": 7627,
      "kitaab": 7628,
      "taliyay": 7629,
      "ambab": 7630,
      "waji": 7631,
      "##atan": 7632,
      "muujiyo": 7633,
      "gaashaandhiga": 7634,
      "tam": 7635,
      "arbacadii": 7636,
      "waxyaalaha": 7637,
      "darka": 7638,
      "54": 7639,
      "heysto": 7640,
      "buuxin": 7641,
      "hogaamiyo": 7642,
      "walwal": 7643,
      "ciyaartii": 7644,
      "yaraa": 7645,
      "farshaxanka": 7646,
      "##iiyay": 7647,
      "qabin": 7648,
      "xilsaar": 7649,
      "xalane": 7650,
      "##inimada": 7651,
      "akhristay": 7652,
      "weerareen": 7653,
      "cirib": 7654,
      "aaga": 7655,
      "es": 7656,
      "qofna": 7657,
      "guryahooda": 7658,
      "qabanqaab": 7659,
      "furaha": 7660,
      "##joogta": 7661,
      "siilka": 7662,
      "kiil": 7663,
      "khawaarijta": 7664,
      "deris": 7665,
      "##liy": 7666,
      "dor": 7667,
      "darteedna": 7668,
      "ururrada": 7669,
      "gubay": 7670,
      "nuug": 7671,
      "xumada": 7672,
      "xasiloonida": 7673,
      "mahadsanid": 7674,
      "traf": 7675,
      "xadhiga": 7676,
      "##qo": 7677,
      "furmo": 7678,
      "##ppe": 7679,
      "neymar": 7680,
      "##str": 7681,
      "helno": 7682,
      "borama": 7683,
      "inc": 7684,
      "##res": 7685,
      "##get": 7686,
      "milatari": 7687,
      "##able": 7688,
      "baardheere": 7689,
      "ceyr": 7690,
      "gudbo": 7691,
      "furi": 7692,
      "culim": 7693,
      "erayo": 7694,
      "kooxdu": 7695,
      "ogaadaan": 7696,
      "qurbaha": 7697,
      "rajeynayaa": 7698,
      "ummad": 7699,
      "kore": 7700,
      "2006": 7701,
      "joogtay": 7702,
      "simaha": 7703,
      "hadlayaa": 7704,
      "##iidka": 7705,
      "camal": 7706,
      "maxkamadaha": 7707,
      "led": 7708,
      "dagaalku": 7709,
      "keli": 7710,
      "99": 7711,
      "beddeli": 7712,
      "caaq": 7713,
      "isbedelka": 7714,
      "##lax": 7715,
      "por": 7716,
      "galkacyo": 7717,
      "garanayn": 7718,
      "safaarada": 7719,
      "carabka": 7720,
      "oct": 7721,
      "halg": 7722,
      "fogaado": 7723,
      "dadweyn": 7724,
      "aragno": 7725,
      "casho": 7726,
      "rabitaan": 7727,
      "gudboon": 7728,
      "daraasad": 7729,
      "cabir": 7730,
      "##post": 7731,
      "qaadday": 7732,
      "##batay": 7733,
      "arbaco": 7734,
      "asaga": 7735,
      "kubbadda": 7736,
      "horseedi": 7737,
      "arrintaan": 7738,
      "kumeel": 7739,
      "##ucation": 7740,
      "somaaliya": 7741,
      "minneapolis": 7742,
      "wadashaq": 7743,
      "xajka": 7744,
      "yool": 7745,
      "##field": 7746,
      "sicir": 7747,
      "miyaa": 7748,
      "fadhiyo": 7749,
      "isticmaalay": 7750,
      "mideysan": 7751,
      "walow": 7752,
      "bilic": 7753,
      "carqalad": 7754,
      "raaciyey": 7755,
      "filimada": 7756,
      "lacagtii": 7757,
      "bet": 7758,
      "damac": 7759,
      "isgaadh": 7760,
      "lahaan": 7761,
      "gabo": 7762,
      "dhoweeyay": 7763,
      "isagana": 7764,
      "heesaha": 7765,
      "dhexeysa": 7766,
      "saftay": 7767,
      "markan": 7768,
      "ergayga": 7769,
      "##haj": 7770,
      "muhim": 7771,
      "argentina": 7772,
      "xarumo": 7773,
      "heshiiskan": 7774,
      "yeero": 7775,
      "iyaduna": 7776,
      "41": 7777,
      "talaado": 7778,
      "boostada": 7779,
      "masuuliyad": 7780,
      "taariikhi": 7781,
      "shareecada": 7782,
      "keento": 7783,
      "afaraad": 7784,
      "bogaadin": 7785,
      "##iko": 7786,
      "##uld": 7787,
      "maraan": 7788,
      "tattoo": 7789,
      "##adkii": 7790,
      "kabashada": 7791,
      "hawlo": 7792,
      "kuy": 7793,
      "buugaagta": 7794,
      "mamnuucay": 7795,
      "codadka": 7796,
      "##qada": 7797,
      "##aqa": 7798,
      "65": 7799,
      "canshuurta": 7800,
      "aaska": 7801,
      "kim": 7802,
      "gam": 7803,
      "black": 7804,
      "##qan": 7805,
      "diwaan": 7806,
      "qaadey": 7807,
      "sidaad": 7808,
      "shabel": 7809,
      "ururinta": 7810,
      "dhuum": 7811,
      "gabadhii": 7812,
      "muddadii": 7813,
      "carabiya": 7814,
      "##bahaar": 7815,
      "fuliyaan": 7816,
      "##sur": 7817,
      "##wasaare": 7818,
      "bedeli": 7819,
      "qus": 7820,
      "naxdin": 7821,
      "arintaan": 7822,
      "haynta": 7823,
      "aasiya": 7824,
      "roobka": 7825,
      "reerka": 7826,
      "work": 7827,
      "##ashay": 7828,
      "farqiga": 7829,
      "mc": 7830,
      "culays": 7831,
      "national": 7832,
      "madal": 7833,
      "mabda": 7834,
      "deeqaha": 7835,
      "mushah": 7836,
      "sahay": 7837,
      "liida": 7838,
      "##iyeynta": 7839,
      "switz": 7840,
      "##ire": 7841,
      "qiimeyn": 7842,
      "mp3": 7843,
      "gudbiyey": 7844,
      "khaf": 7845,
      "dareeraha": 7846,
      "##oosh": 7847,
      "cent": 7848,
      "hun": 7849,
      "##rin": 7850,
      "chan": 7851,
      "##guna": 7852,
      "dagaalkan": 7853,
      "dammaanad": 7854,
      "##den": 7855,
      "aragnay": 7856,
      "english": 7857,
      "tai": 7858,
      "##binta": 7859,
      "sark": 7860,
      "eegis": 7861,
      "adeegsanaya": 7862,
      "namb": 7863,
      "maamulkaas": 7864,
      "time": 7865,
      "buulo": 7866,
      "nic": 7867,
      "dowladnimada": 7868,
      "cudurada": 7869,
      "belgium": 7870,
      "##by": 7871,
      "noloshooda": 7872,
      "qabsadaan": 7873,
      "##efa": 7874,
      "xukum": 7875,
      "tallaabooyinka": 7876,
      "dhaqso": 7877,
      "xirnaa": 7878,
      "badbaadiyo": 7879,
      "asluubta": 7880,
      "##tihiin": 7881,
      "hayeeshee": 7882,
      "dalabka": 7883,
      "cawad": 7884,
      "muxaad": 7885,
      "##kaani": 7886,
      "##ali": 7887,
      "daaha": 7888,
      "46": 7889,
      "saan": 7890,
      "roma": 7891,
      "##waha": 7892,
      "dhakhaatiirta": 7893,
      "taw": 7894,
      "sanduuq": 7895,
      "xuduuda": 7896,
      "##tim": 7897,
      "iibsaday": 7898,
      "##siyeed": 7899,
      "kiisaska": 7900,
      "##ins": 7901,
      "gaarey": 7902,
      "teb": 7903,
      "trans": 7904,
      "qorsheyn": 7905,
      "hoolka": 7906,
      "gary": 7907,
      "xaqiiqo": 7908,
      "aakhir": 7909,
      "aynaan": 7910,
      "cinwaanka": 7911,
      "saylici": 7912,
      "boolisku": 7913,
      "switzerland": 7914,
      "horayn": 7915,
      "##unka": 7916,
      "dhameystiran": 7917,
      "##aayaa": 7918,
      "mirror": 7919,
      "budada": 7920,
      "kalig": 7921,
      "asagoo": 7922,
      "dow": 7923,
      "biyuhu": 7924,
      "lagugu": 7925,
      "##aynayso": 7926,
      "talis": 7927,
      "samsung": 7928,
      "imaam": 7929,
      "ana": 7930,
      "##tos": 7931,
      "dacwadda": 7932,
      "italy": 7933,
      "##oore": 7934,
      "goolal": 7935,
      "reebay": 7936,
      "rod": 7937,
      "tiradoodu": 7938,
      "##fac": 7939,
      "lixda": 7940,
      "##irif": 7941,
      "waajibaad": 7942,
      "##hii": 7943,
      "sugayo": 7944,
      "hadalkan": 7945,
      "##tarool": 7946,
      "khafiif": 7947,
      "waraaqaha": 7948,
      "qiyaasay": 7949,
      "maamusho": 7950,
      "durb": 7951,
      "tashan": 7952,
      "##idoon": 7953,
      "weerarkaas": 7954,
      "caymiska": 7955,
      "##oduc": 7956,
      "ley": 7957,
      "##ep": 7958,
      "magacaabista": 7959,
      "xigeenkiisa": 7960,
      "##araalka": 7961,
      "xigashada": 7962,
      "tegi": 7963,
      "carbeed": 7964,
      "xidha": 7965,
      "gil": 7966,
      "##cadda": 7967,
      "warqadda": 7968,
      "wefti": 7969,
      "idiinku": 7970,
      "qaadaya": 7971,
      "baahiyay": 7972,
      "tacaal": 7973,
      "hd": 7974,
      "arm": 7975,
      "mariyo": 7976,
      "naqsh": 7977,
      "kordhaya": 7978,
      "badeecada": 7979,
      "xin": 7980,
      "madaxbannaan": 7981,
      "##aamay": 7982,
      "tacsiy": 7983,
      "govern": 7984,
      "saara": 7985,
      "lal": 7986,
      "gariir": 7987,
      "qaraxan": 7988,
      "shabelle": 7989,
      "weriye": 7990,
      "halganka": 7991,
      "william": 7992,
      "joogeen": 7993,
      "##galin": 7994,
      "qoyskiisa": 7995,
      "midba": 7996,
      "##adayda": 7997,
      "bakaaraha": 7998,
      "link": 7999,
      "##ox": 8000,
      "ilkaha": 8001,
      "beddelay": 8002,
      "kkkkkkkkk": 8003,
      "##tle": 8004,
      "foosha": 8005,
      "jamac": 8006,
      "kaashanaya": 8007,
      "kiin": 8008,
      "hee": 8009,
      "600": 8010,
      "shabeelada": 8011,
      "horg": 8012,
      "dowladii": 8013,
      "aqoonsaday": 8014,
      "hadallo": 8015,
      "sel": 8016,
      "sky": 8017,
      "muwaad": 8018,
      "khabiir": 8019,
      "##eyo": 8020,
      "bilihii": 8021,
      "yaq": 8022,
      "senator": 8023,
      "qulqul": 8024,
      "dill": 8025,
      "mudaharaad": 8026,
      "##cada": 8027,
      "tigr": 8028,
      "dareemayaa": 8029,
      "lub": 8030,
      "##cow": 8031,
      "##madow": 8032,
      "inteeda": 8033,
      "qaasim": 8034,
      "hogaaminayay": 8035,
      "qiiq": 8036,
      "barakacayaasha": 8037,
      "klo": 8038,
      "badalo": 8039,
      "gollaha": 8040,
      "cuf": 8041,
      "diim": 8042,
      "dhaqaaj": 8043,
      "taam": 8044,
      "cabdiwali": 8045,
      "##eysnaa": 8046,
      "##adeedu": 8047,
      "daafac": 8048,
      "ujeedd": 8049,
      "gudah": 8050,
      "kordhiyay": 8051,
      "tallaabooyin": 8052,
      "kuxigeen": 8053,
      "khamiista": 8054,
      "jagada": 8055,
      "dardaarmay": 8056,
      "anti": 8057,
      "adkaatay": 8058,
      "##ency": 8059,
      "dhexda": 8060,
      "mucj": 8061,
      "best": 8062,
      "howlgallada": 8063,
      "fer": 8064,
      "##nadii": 8065,
      "gaalada": 8066,
      "taxadar": 8067,
      "kaleba": 8068,
      "geor": 8069,
      "baaxadda": 8070,
      "nuxurka": 8071,
      "##aaman": 8072,
      "diley": 8073,
      "##aafta": 8074,
      "##uss": 8075,
      "mm": 8076,
      "caqabado": 8077,
      "daraawiishta": 8078,
      "marayay": 8079,
      "kamp": 8080,
      "mareykanku": 8081,
      "##los": 8082,
      "sig": 8083,
      "heysan": 8084,
      "##cast": 8085,
      "heshiiyay": 8086,
      "kib": 8087,
      "##van": 8088,
      "sep": 8089,
      "sarkaalka": 8090,
      "rabin": 8091,
      "dhuun": 8092,
      "suld": 8093,
      "colaada": 8094,
      "##saan": 8095,
      "wafti": 8096,
      "caado": 8097,
      "tra": 8098,
      "gogol": 8099,
      "##ident": 8100,
      "see": 8101,
      "jiidasho": 8102,
      "murugo": 8103,
      "##addaada": 8104,
      "yidhaa": 8105,
      "kobcinta": 8106,
      "article": 8107,
      "muumin": 8108,
      "dagaaladii": 8109,
      "##aayad": 8110,
      "gh": 8111,
      "tartamada": 8112,
      "fiidiy": 8113,
      "yaabay": 8114,
      "caddaan": 8115,
      "cons": 8116,
      "caddayn": 8117,
      "rugta": 8118,
      "barnaamijkan": 8119,
      "baashe": 8120,
      "wiilasha": 8121,
      "shin": 8122,
      "##ces": 8123,
      "##biya": 8124,
      "moog": 8125,
      "##ayse": 8126,
      "turkigu": 8127,
      "ibraahin": 8128,
      "dush": 8129,
      "meydka": 8130,
      "gudbisay": 8131,
      "maamulkiisa": 8132,
      "sifooyinka": 8133,
      "guuleysto": 8134,
      "idl": 8135,
      "nugul": 8136,
      "qabyaalad": 8137,
      "muxumed": 8138,
      "magaaladaas": 8139,
      "samafalka": 8140,
      "##ita": 8141,
      "baraf": 8142,
      "quf": 8143,
      "##nel": 8144,
      "##ogba": 8145,
      "##rka": 8146,
      "##ooska": 8147,
      "51": 8148,
      "qudh": 8149,
      "xiisada": 8150,
      "amba": 8151,
      "jwxo": 8152,
      "qarka": 8153,
      "ugaar": 8154,
      "naafada": 8155,
      "weel": 8156,
      "hindi": 8157,
      "195": 8158,
      "riwaay": 8159,
      "inaadan": 8160,
      "koofurta": 8161,
      "watch": 8162,
      "uefa": 8163,
      "##don": 8164,
      "milla": 8165,
      "eek": 8166,
      "tanz": 8167,
      "baaxad": 8168,
      "xush": 8169,
      "##keenu": 8170,
      "##art": 8171,
      "annagu": 8172,
      "cabdishak": 8173,
      "jug": 8174,
      "##enger": 8175,
      "##aacay": 8176,
      "masjid": 8177,
      "shaqaynta": 8178,
      "kariimka": 8179,
      "##ons": 8180,
      "##ll": 8181,
      "salah": 8182,
      "dowladd": 8183,
      "koobaad": 8184,
      "qaadanaya": 8185,
      "hindise": 8186,
      "weeraryahan": 8187,
      "##int": 8188,
      "share": 8189,
      "ergo": 8190,
      "xirfadeed": 8191,
      "they": 8192,
      "guardiola": 8193,
      "doonno": 8194,
      "kaalm": 8195,
      "dhaqaat": 8196,
      "latal": 8197,
      "mandh": 8198,
      "diini": 8199,
      "##iijka": 8200,
      "raaj": 8201,
      "xukumadda": 8202,
      "##hel": 8203,
      "49": 8204,
      "dawladu": 8205,
      "dagaallada": 8206,
      "##jec": 8207,
      "qabtaa": 8208,
      "##ils": 8209,
      "##gooda": 8210,
      "##oble": 8211,
      "qaram": 8212,
      "##iiii": 8213,
      "##reen": 8214,
      "##mund": 8215,
      "##olas": 8216,
      "said": 8217,
      "nuk": 8218,
      "daciif": 8219,
      "saldhigyada": 8220,
      "xidd": 8221,
      "agoon": 8222,
      "##ijit": 8223,
      "rajada": 8224,
      "hoyga": 8225,
      "gudida": 8226,
      "##kkkkkkkkkkkkkkkkkkkkkkkkkkkkkkkk": 8227,
      "dukaan": 8228,
      "aaminsanahay": 8229,
      "mugdi": 8230,
      "ugala": 8231,
      "##shiil": 8232,
      "serg": 8233,
      "qaraxaasi": 8234,
      "xukuumadu": 8235,
      "howlgala": 8236,
      "fifa": 8237,
      "xuj": 8238,
      "##iyana": 8239,
      "dabadeedna": 8240,
      "blog": 8241,
      "ooy": 8242,
      "kombiyuu": 8243,
      "tagto": 8244,
      "casil": 8245,
      "ogahay": 8246,
      "fc": 8247,
      "eu": 8248,
      "anagoo": 8249,
      "baaskii": 8250,
      "muujinayaan": 8251,
      "##sare": 8252,
      "noloshiisa": 8253,
      "king": 8254,
      "diyaargar": 8255,
      "sababi": 8256,
      "gudoomiyihii": 8257,
      "heel": 8258,
      "sawirrada": 8259,
      "##ken": 8260,
      "hadley": 8261,
      "baahisay": 8262,
      "fak": 8263,
      "lan": 8264,
      "##dom": 8265,
      "taiwan": 8266,
      "jibriil": 8267,
      "siiyeen": 8268,
      "fikradda": 8269,
      "uf": 8270,
      "ogsoon": 8271,
      "waalan": 8272,
      "quns": 8273,
      "wakhtigan": 8274,
      "wataan": 8275,
      "##laawe": 8276,
      "jirkaan": 8277,
      "yaaq": 8278,
      "duulaan": 8279,
      "##eembar": 8280,
      "kalsoonaan": 8281,
      "tacad": 8282,
      "habaynta": 8283,
      "maxalliga": 8284,
      "##iyaanka": 8285,
      "maarmaanka": 8286,
      "khiy": 8287,
      "raaceen": 8288,
      "waalidka": 8289,
      "waqtigaas": 8290,
      "rel": 8291,
      "rub": 8292,
      "##ateen": 8293,
      "power": 8294,
      "heshiiyeen": 8295,
      "##wareer": 8296,
      "camp": 8297,
      "manhaj": 8298,
      "runt": 8299,
      "diyaariyey": 8300,
      "garaacay": 8301,
      "xumaa": 8302,
      "dhaliilay": 8303,
      "heegan": 8304,
      "##yadiisa": 8305,
      "wasaaraddu": 8306,
      "caadada": 8307,
      "saabsanaa": 8308,
      "dhismayaasha": 8309,
      "##ican": 8310,
      "labadaas": 8311,
      "waare": 8312,
      "qey": 8313,
      "qorm": 8314,
      "xeeran": 8315,
      "date": 8316,
      "##gay": 8317,
      "huwan": 8318,
      "##maah": 8319,
      "nof": 8320,
      "##zon": 8321,
      "waayaan": 8322,
      "dulq": 8323,
      "diyaarado": 8324,
      "##aataan": 8325,
      "deeqda": 8326,
      "wehelin": 8327,
      "120": 8328,
      "iso": 8329,
      "alxanka": 8330,
      "cadeyn": 8331,
      "xudd": 8332,
      "isal": 8333,
      "tiy": 8334,
      "yac": 8335,
      "cuntooyinka": 8336,
      "fm": 8337,
      "sara": 8338,
      "maamullada": 8339,
      "dembi": 8340,
      "year": 8341,
      "##reat": 8342,
      "hurdo": 8343,
      "rabshado": 8344,
      "dort": 8345,
      "iidooyin": 8346,
      "ahlusun": 8347,
      "##geliyey": 8348,
      "rig": 8349,
      "waraabiyo": 8350,
      "suugaan": 8351,
      "##ridge": 8352,
      "horumarsan": 8353,
      "pen": 8354,
      "editor": 8355,
      "hirgelin": 8356,
      "xirtay": 8357,
      "##poli": 8358,
      "their": 8359,
      "shirkaan": 8360,
      "rakaab": 8361,
      "doorteen": 8362,
      "sheegto": 8363,
      "laayay": 8364,
      "fiiri": 8365,
      "klopp": 8366,
      "dhiganta": 8367,
      "inu": 8368,
      "mushkil": 8369,
      "doorashadu": 8370,
      "gin": 8371,
      "wiiq": 8372,
      "jor": 8373,
      "gelisay": 8374,
      "tallaal": 8375,
      "user": 8376,
      "cabsida": 8377,
      "nabadgelyo": 8378,
      "dhigin": 8379,
      "dhaqaaqay": 8380,
      "##ashadii": 8381,
      "shimbir": 8382,
      "xadhig": 8383,
      "##sador": 8384,
      "##wadaag": 8385,
      "yoonis": 8386,
      "kacday": 8387,
      "raalli": 8388,
      "qaaliga": 8389,
      "dhahay": 8390,
      "heshiin": 8391,
      "52": 8392,
      "##omo": 8393,
      "##tif": 8394,
      "habraac": 8395,
      "siiya": 8396,
      "xorriyadda": 8397,
      "maalgashi": 8398,
      "baanka": 8399,
      "sat": 8400,
      "sokow": 8401,
      "gadh": 8402,
      "gardar": 8403,
      "riyo": 8404,
      "xaqiiqdii": 8405,
      "cambaareeyay": 8406,
      "qalla": 8407,
      "ajan": 8408,
      "fadhi": 8409,
      "buluug": 8410,
      "taakul": 8411,
      "adeegsadaan": 8412,
      "bark": 8413,
      "##radii": 8414,
      "baxda": 8415,
      "qaybinta": 8416,
      "awoodaha": 8417,
      "baj": 8418,
      "##ego": 8419,
      "##isaan": 8420,
      "musuqmaasuqa": 8421,
      "muujinaysa": 8422,
      "wadamo": 8423,
      "sahal": 8424,
      "commun": 8425,
      "##som": 8426,
      "cunsur": 8427,
      "aasaaska": 8428,
      "michael": 8429,
      "otom": 8430,
      "kampala": 8431,
      "naaga": 8432,
      "##toodu": 8433,
      "goolasha": 8434,
      "abaalmarin": 8435,
      "##ages": 8436,
      "hut": 8437,
      "saaraha": 8438,
      "wayna": 8439,
      "raas": 8440,
      "dhibic": 8441,
      "##ral": 8442,
      "martin": 8443,
      "ciy": 8444,
      "wato": 8445,
      "badnaan": 8446,
      "wadarta": 8447,
      "geeyey": 8448,
      "baahanahay": 8449,
      "siinayaa": 8450,
      "kaddibna": 8451,
      "dhadhan": 8452,
      "org": 8453,
      "warbixintan": 8454,
      "guutada": 8455,
      "asb": 8456,
      "arka": 8457,
      "ado": 8458,
      "codee": 8459,
      "pan": 8460,
      "like": 8461,
      "hortagi": 8462,
      "qiyaasta": 8463,
      "pat": 8464,
      "hoggaamiyo": 8465,
      "siiyaa": 8466,
      "kariin": 8467,
      "badnayd": 8468,
      "cabdishakuur": 8469,
      "tif": 8470,
      "mi": 8471,
      "serv": 8472,
      "dist": 8473,
      "##ics": 8474,
      "##ull": 8475,
      "dortmund": 8476,
      "##danka": 8477,
      "dhammaystiran": 8478,
      "dem": 8479,
      "ambassador": 8480,
      "ni": 8481,
      "##axy": 8482,
      "aweys": 8483,
      "##guur": 8484,
      "dowladu": 8485,
      "arbacada": 8486,
      "##uters": 8487,
      "gaarsiiyo": 8488,
      "##gaa": 8489,
      "mareeg": 8490,
      "maayarka": 8491,
      "wanaagga": 8492,
      "lugood": 8493,
      "askariga": 8494,
      "2005": 8495,
      "duull": 8496,
      "##cay": 8497,
      "salaada": 8498,
      "##dee": 8499,
      "goluhu": 8500,
      "xannib": 8501,
      "weydaar": 8502,
      "north": 8503,
      "##owdo": 8504,
      "##adiin": 8505,
      "##araad": 8506,
      "gudo": 8507,
      "baahdo": 8508,
      "kusug": 8509,
      "##vd": 8510,
      "isbah": 8511,
      "caabuqa": 8512,
      "imaat": 8513,
      "technology": 8514,
      "dhaawacyada": 8515,
      "itoobiyaan": 8516,
      "shayb": 8517,
      "hawlan": 8518,
      "##aatiga": 8519,
      "##omas": 8520,
      "dabayaa": 8521,
      "daqiiqado": 8522,
      "rabshadaha": 8523,
      "dhakhtarka": 8524,
      "majeerteen": 8525,
      "ipad": 8526,
      "musq": 8527,
      "wareegaan": 8528,
      "ingiriisku": 8529,
      "ninkaan": 8530,
      "baxayaan": 8531,
      "##aaban": 8532,
      "shaqadiisa": 8533,
      "fulisay": 8534,
      "vis": 8535,
      "dhacdadan": 8536,
      "produc": 8537,
      "ganacsat": 8538,
      "kumb": 8539,
      "mudooyinkii": 8540,
      "##eeyayaasha": 8541,
      "kaq": 8542,
      "##gashay": 8543,
      "saamiga": 8544,
      "blues": 8545,
      "##lat": 8546,
      "##unda": 8547,
      "taageeri": 8548,
      "dhaadheer": 8549,
      "social": 8550,
      "een": 8551,
      "sheegaa": 8552,
      "isbaan": 8553,
      "sen": 8554,
      "ingr": 8555,
      "umad": 8556,
      "xiir": 8557,
      "zin": 8558,
      "nn": 8559,
      "iftiim": 8560,
      "geesta": 8561,
      "dhiirigelin": 8562,
      "qabsatay": 8563,
      "##ious": 8564,
      "welwel": 8565,
      "subaxnimo": 8566,
      "arkin": 8567,
      "dhasha": 8568,
      "haysay": 8569,
      "##saarka": 8570,
      "##kis": 8571,
      "midaysan": 8572,
      "rakaabka": 8573,
      "##eelay": 8574,
      "##galinta": 8575,
      "liita": 8576,
      "government": 8577,
      "howlgalo": 8578,
      "dambiyada": 8579,
      "qaadaa": 8580,
      "kugula": 8581,
      "booqan": 8582,
      "canshuuraha": 8583,
      "ox": 8584,
      "dayax": 8585,
      "##siyadda": 8586,
      "saami": 8587,
      "hilib": 8588,
      "qaybq": 8589,
      "jubada": 8590,
      "ictir": 8591,
      "jabhadda": 8592,
      "bon": 8593,
      "african": 8594,
      "badeeda": 8595,
      "hakad": 8596,
      "dawo": 8597,
      "ciyaartooy": 8598,
      "dalb": 8599,
      "##aynaysaa": 8600,
      "xulaf": 8601,
      "file": 8602,
      "dhulkii": 8603,
      "viv": 8604,
      "##rip": 8605,
      "qadii": 8606,
      "bilaabmay": 8607,
      "##alaan": 8608,
      "mub": 8609,
      "kalif": 8610,
      "daaweyn": 8611,
      "suuqg": 8612,
      "number": 8613,
      "suldaanka": 8614,
      "caawinta": 8615,
      "dhexeeyay": 8616,
      "waaq": 8617,
      "xorta": 8618,
      "reuters": 8619,
      "elec": 8620,
      "ree": 8621,
      "##tics": 8622,
      "bandhiga": 8623,
      "bilowdo": 8624,
      "faadumo": 8625,
      "qirtay": 8626,
      "##haa": 8627,
      "karan": 8628,
      "##uj": 8629,
      "bilaaw": 8630,
      "haynaa": 8631,
      "##iyadooda": 8632,
      "aadna": 8633,
      "sharaxaad": 8634,
      "jeclaa": 8635,
      "##elinta": 8636,
      "goobtii": 8637,
      "dhaqmo": 8638,
      "maxaan": 8639,
      "matoor": 8640,
      "culumada": 8641,
      "miraha": 8642,
      "gudbiyaan": 8643,
      "markaasi": 8644,
      "##addaasi": 8645,
      "dadaalo": 8646,
      "xasilooni": 8647,
      "mw": 8648,
      "##iyee": 8649,
      "cisbitaalka": 8650,
      "beeral": 8651,
      "caddeyn": 8652,
      "ergeyga": 8653,
      "nukliy": 8654,
      "bede": 8655,
      "##tur": 8656,
      "qandaraaska": 8657,
      "badbaadinta": 8658,
      "qam": 8659,
      "xilliyada": 8660,
      "high": 8661,
      "dhawaaj": 8662,
      "bararka": 8663,
      "habab": 8664,
      "seri": 8665,
      "fit": 8666,
      "##agsan": 8667,
      "bankiga": 8668,
      "##aatee": 8669,
      "bilaashka": 8670,
      "haay": 8671,
      "##araal": 8672,
      "doodu": 8673,
      "##laaq": 8674,
      "kiimikada": 8675,
      "idhi": 8676,
      "aaladda": 8677,
      "##uuuu": 8678,
      "##ister": 8679,
      "maamulaan": 8680,
      "cudurrada": 8681,
      "casaan": 8682,
      "tuulo": 8683,
      "keeneen": 8684,
      "mata": 8685,
      "wareejiyey": 8686,
      "batr": 8687,
      "naxariisto": 8688,
      "fall": 8689,
      "cadh": 8690,
      "taang": 8691,
      "nalalka": 8692,
      "qulqulka": 8693,
      "kumaan": 8694,
      "doonan": 8695,
      "dhisme": 8696,
      "dahabshiil": 8697,
      "hooyadii": 8698,
      "##tish": 8699,
      "xidigaha": 8700,
      "tiiraan": 8701,
      "tigray": 8702,
      "sacuudi": 8703,
      "##king": 8704,
      "dhami": 8705,
      "##qor": 8706,
      "shuk": 8707,
      "maalintaas": 8708,
      "duulay": 8709,
      "qabyo": 8710,
      "dep": 8711,
      "barnaamijyo": 8712,
      "walbana": 8713,
      "##iik": 8714,
      "unh": 8715,
      "islaamku": 8716,
      "afraad": 8717,
      "heshiisyo": 8718,
      "xallinta": 8719,
      "##mayaa": 8720,
      "jiir": 8721,
      "qalbiga": 8722,
      "bandhigga": 8723,
      "culeyska": 8724,
      "airport": 8725,
      "xubinta": 8726,
      "dalkeeda": 8727,
      "##stem": 8728,
      "udhax": 8729,
      "cadceed": 8730,
      "wayday": 8731,
      "kanada": 8732,
      "jaah": 8733,
      "##iyed": 8734,
      "qabsado": 8735,
      "kufsi": 8736,
      "mba": 8737,
      "quraan": 8738,
      "diido": 8739,
      "bro": 8740,
      "##mart": 8741,
      "doox": 8742,
      "log": 8743,
      "sunta": 8744,
      "bukaanka": 8745,
      "khaliijka": 8746,
      "mushaharka": 8747,
      "xulay": 8748,
      "putin": 8749,
      "fiber": 8750,
      "##dana": 8751,
      "dhuxul": 8752,
      "siweyn": 8753,
      "qaas": 8754,
      "fasaxa": 8755,
      "mowduuc": 8756,
      "##yaasha": 8757,
      "loosoo": 8758,
      "maalgelinta": 8759,
      "64": 8760,
      "tashiga": 8761,
      "joe": 8762,
      "dadkooda": 8763,
      "##ayan": 8764,
      "siiba": 8765,
      "xukuumaddii": 8766,
      "khuseeya": 8767,
      "sariirta": 8768,
      "xuquuqul": 8769,
      "duku": 8770,
      "milateriga": 8771,
      "lar": 8772,
      "dastuuriga": 8773,
      "caasha": 8774,
      "mex": 8775,
      "saaxiibada": 8776,
      "qaranimada": 8777,
      "xanaanada": 8778,
      "bollyw": 8779,
      "qoyan": 8780,
      "taariikhiga": 8781,
      "fay": 8782,
      "dhageystay": 8783,
      "dukaanka": 8784,
      "atmis": 8785,
      "hogaaminta": 8786,
      "calool": 8787,
      "howlo": 8788,
      "nash": 8789,
      "baabuurka": 8790,
      "doqon": 8791,
      "hus": 8792,
      "xidhka": 8793,
      "kabaha": 8794,
      "1000": 8795,
      "fiicnaa": 8796,
      "boqortooy": 8797,
      "isgaadhsiinta": 8798,
      "fasal": 8799,
      "tijaabo": 8800,
      "baaqeen": 8801,
      "roo": 8802,
      "##dda": 8803,
      "tirak": 8804,
      "cawaale": 8805,
      "wic": 8806,
      "gaadhin": 8807,
      "geeriyoodeen": 8808,
      "xigay": 8809,
      "keydka": 8810,
      "##qadii": 8811,
      "khiyaan": 8812,
      "axsaabta": 8813,
      "unhcr": 8814,
      "ten": 8815,
      "##eek": 8816,
      "qoyskii": 8817,
      "amin": 8818,
      "midawga": 8819,
      "##amay": 8820,
      "##raph": 8821,
      "dayo": 8822,
      "xoq": 8823,
      "qaah": 8824,
      "boliiska": 8825,
      "##ahman": 8826,
      "##asoo": 8827,
      "##eesan": 8828,
      "dadkiisa": 8829,
      "fadhiyay": 8830,
      "agaasimay": 8831,
      "dabeecadda": 8832,
      "sababa": 8833,
      "gelitaanka": 8834,
      "inoogu": 8835,
      "dameer": 8836,
      "abuurista": 8837,
      "##addar": 8838,
      "doorashadda": 8839,
      "fureen": 8840,
      "bangiyada": 8841,
      "metel": 8842,
      "garto": 8843,
      "line": 8844,
      "raiis": 8845,
      "##abay": 8846,
      "wareys": 8847,
      "garbahaar": 8848,
      "dhaxeeyo": 8849,
      "dhaweynta": 8850,
      "falanqaynta": 8851,
      "##cos": 8852,
      "##yare": 8853,
      "caabin": 8854,
      "deked": 8855,
      "marmar": 8856,
      "sumcad": 8857,
      "eegi": 8858,
      "hagar": 8859,
      "xasilloonida": 8860,
      "##tel": 8861,
      "##dhay": 8862,
      "##aweyn": 8863,
      "garanayo": 8864,
      "astaamo": 8865,
      "dri": 8866,
      "direen": 8867,
      "yariisow": 8868,
      "isdhex": 8869,
      "dhibcaha": 8870,
      "zid": 8871,
      "##tayada": 8872,
      "cade": 8873,
      "guushii": 8874,
      "moodaa": 8875,
      "taageerayaash": 8876,
      "innaga": 8877,
      "alaabooyinka": 8878,
      "##elop": 8879,
      "baaj": 8880,
      "dalsan": 8881,
      "kadh": 8882,
      "imaad": 8883,
      "##tical": 8884,
      "##dhaca": 8885,
      "guuto": 8886,
      "rajaynayaa": 8887,
      "jubooyinka": 8888,
      "isticmaalayo": 8889,
      "horaantii": 8890,
      "naloo": 8891,
      "howlan": 8892,
      "nacayb": 8893,
      "tashi": 8894,
      "qasriga": 8895,
      "kalfadhiga": 8896,
      "lafta": 8897,
      "bulshooyinka": 8898,
      "##su": 8899,
      "aaf": 8900,
      "ked": 8901,
      "awoodin": 8902,
      "adkaaday": 8903,
      "tartami": 8904,
      "lubnaan": 8905,
      "today": 8906,
      "gunners": 8907,
      "shaaha": 8908,
      "##aynaysa": 8909,
      "wiilkii": 8910,
      "800": 8911,
      "##rim": 8912,
      "ubaah": 8913,
      "lugaha": 8914,
      "tilmaantay": 8915,
      "tirakoob": 8916,
      "heshiisyada": 8917,
      "##agaa": 8918,
      "roobow": 8919,
      "egtahay": 8920,
      "biraha": 8921,
      "luqadda": 8922,
      "gaadhaya": 8923,
      "dhaqameedka": 8924,
      "##addooda": 8925,
      "bilaabaan": 8926,
      "magaceeda": 8927,
      "var": 8928,
      "billowday": 8929,
      "sahan": 8930,
      "everton": 8931,
      "fircoon": 8932,
      "raashinka": 8933,
      "zidane": 8934,
      "doonayey": 8935,
      "huraan": 8936,
      "police": 8937,
      "racf": 8938,
      "ahlusunna": 8939,
      "muraayadaha": 8940,
      "baraarug": 8941,
      "doonayeen": 8942,
      "gudaheeda": 8943,
      "##ship": 8944,
      "daraya": 8945,
      "jawiga": 8946,
      "gaarayo": 8947,
      "##siisay": 8948,
      "53": 8949,
      "amx": 8950,
      "hurdada": 8951,
      "tanzania": 8952,
      "sk": 8953,
      "dhacdooyinka": 8954,
      "press": 8955,
      "jfs": 8956,
      "shiid": 8957,
      "talaabada": 8958,
      "gaashaanle": 8959,
      "dariska": 8960,
      "iideysan": 8961,
      "anshaxa": 8962,
      "hanjabay": 8963,
      "dimoqraad": 8964,
      "hagaajiyo": 8965,
      "beero": 8966,
      "protec": 8967,
      "moscow": 8968,
      "yaqaanno": 8969,
      "maqalka": 8970,
      "imm": 8971,
      "kaalmada": 8972,
      "##aydaan": 8973,
      "jirtey": 8974,
      "dhamaad": 8975,
      "malays": 8976,
      "slpost": 8977,
      "suura": 8978,
      "contr": 8979,
      "guska": 8980,
      "raadinaya": 8981,
      "yeelo": 8982,
      "##ernand": 8983,
      "xiligaas": 8984,
      "fogaan": 8985,
      "##laam": 8986,
      "mulkii": 8987,
      "##enter": 8988,
      "xudur": 8989,
      "waxyeello": 8990,
      "##kaasna": 8991,
      "naj": 8992,
      "cabdiq": 8993,
      "raaci": 8994,
      "jarmal": 8995,
      "ammaanay": 8996,
      "eegto": 8997,
      "##taroon": 8998,
      "cayr": 8999,
      "shilin": 9000,
      "hij": 9001,
      "kaalmo": 9002,
      "xukumada": 9003,
      "habeyn": 9004,
      "##any": 9005,
      "jeedisay": 9006,
      "hiir": 9007,
      "miyaad": 9008,
      "burburay": 9009,
      "islaan": 9010,
      "##udi": 9011,
      "laaluu": 9012,
      "xasilinta": 9013,
      "riyada": 9014,
      "mareex": 9015,
      "sanch": 9016,
      "muhiimad": 9017,
      "shirq": 9018,
      "##fe": 9019,
      "barafka": 9020,
      "key": 9021,
      "haweenay": 9022,
      "develop": 9023,
      "##zo": 9024,
      "jasiiradda": 9025,
      "dabar": 9026,
      "sd": 9027,
      "samata": 9028,
      "yari": 9029,
      "buuxiyay": 9030,
      "##isha": 9031,
      "cunaqabat": 9032,
      "jum": 9033,
      "nebi": 9034,
      "heleyno": 9035,
      "ereyga": 9036,
      "qa": 9037,
      "fam": 9038,
      "##iban": 9039,
      "bulshad": 9040,
      "hoostiisa": 9041,
      "kaan": 9042,
      "bab": 9043,
      "omar": 9044,
      "telefishinka": 9045,
      "nato": 9046,
      "wenger": 9047,
      "vir": 9048,
      "umal": 9049,
      "antonio": 9050,
      "system": 9051,
      "khubarada": 9052,
      "gorgor": 9053,
      "##eysaan": 9054,
      "goobjoogayaal": 9055,
      "tuulooyinka": 9056,
      "dawooyinka": 9057,
      "xaam": 9058,
      "##bil": 9059,
      "diiwaanka": 9060,
      "eedeyn": 9061,
      "dkmg": 9062,
      "fakar": 9063,
      "sheekha": 9064,
      "##que": 9065,
      "gartay": 9066,
      "xamse": 9067,
      "samaynayo": 9068,
      "leic": 9069,
      "maqli": 9070,
      "xusuusta": 9071,
      "maahmaah": 9072,
      "wareegi": 9073,
[...]
